{
  "version": "1.0",
  "truncation": null,
  "padding": null,
  "added_tokens": [
    {
      "id": 0,
      "content": "<s>",
      "single_word": false,
      "lstrip": false,
      "rstrip": false,
      "normalized": false,
      "special": true
    },
    {
      "id": 1,
      "content": "</s>",
      "single_word": false,
      "lstrip": false,
      "rstrip": false,
      "normalized": false,
      "special": true
    },
    {
      "id": 2,
      "content": "<p>",
      "single_word": false,
      "lstrip": false,
      "rstrip": false,
      "normalized": false,
      "special": true
    },
    {
      "id": 3,
      "content": "<u>",
      "single_word": false,
      "lstrip": false,
      "rstrip": false,
      "normalized": false,
      "special": true
    }
  ],
  "normalizer": {
    "type": "NFKC"
  },
  "pre_tokenizer": {
    "type": "ByteLevel",
    "add_prefix_space": false,
    "trim_offsets": true,
    "use_regex": true
  },
  "post_processor": null,
  "decoder": {
    "type": "ByteLevel",
    "add_prefix_space": true,
    "trim_offsets": true,
    "use_regex": true
  },
  "model": {
    "type": "BPE",
    "dropout": null,
    "unk_token": "<u>",
    "continuing_subword_prefix": null,
    "end_of_word_suffix": null,
    "fuse_unk": false,
    "byte_fallback": true,
    "ignore_merges": false,
    "vocab": {
      "<s>": 0,
      "</s>": 1,
      "<p>": 2,
      "<u>": 3,
      "!": 4,
      "\"": 5,
      "#": 6,
      "$": 7,
      "%": 8,
      "&": 9,
      "'": 10,
      "(": 11,
      ")": 12,
      "*": 13,
      "+": 14,
      ",": 15,
      "-": 16,
      ".": 17,
      "/": 18,
      "0": 19,
      "1": 20,
      "2": 21,
      "3": 22,
      "4": 23,
      "5": 24,
      "6": 25,
      "7": 26,
      "8": 27,
      "9": 28,
      ":": 29,
      ";": 30,
      "<": 31,
      "=": 32,
      ">": 33,
      "?": 34,
      "@": 35,
      "A": 36,
      "B": 37,
      "C": 38,
      "D": 39,
      "E": 40,
      "F": 41,
      "G": 42,
      "H": 43,
      "I": 44,
      "J": 45,
      "K": 46,
      "L": 47,
      "M": 48,
      "N": 49,
      "O": 50,
      "P": 51,
      "Q": 52,
      "R": 53,
      "S": 54,
      "T": 55,
      "U": 56,
      "V": 57,
      "W": 58,
      "X": 59,
      "Y": 60,
      "Z": 61,
      "[": 62,
      "\\": 63,
      "]": 64,
      "^": 65,
      "_": 66,
      "`": 67,
      "a": 68,
      "b": 69,
      "c": 70,
      "d": 71,
      "e": 72,
      "f": 73,
      "g": 74,
      "h": 75,
      "i": 76,
      "j": 77,
      "k": 78,
      "l": 79,
      "m": 80,
      "n": 81,
      "o": 82,
      "p": 83,
      "q": 84,
      "r": 85,
      "s": 86,
      "t": 87,
      "u": 88,
      "v": 89,
      "w": 90,
      "x": 91,
      "y": 92,
      "z": 93,
      "{": 94,
      "|": 95,
      "}": 96,
      "~": 97,
      "¡": 98,
      "¢": 99,
      "£": 100,
      "¤": 101,
      "¥": 102,
      "¦": 103,
      "§": 104,
      "¨": 105,
      "©": 106,
      "ª": 107,
      "«": 108,
      "¬": 109,
      "®": 110,
      "¯": 111,
      "°": 112,
      "±": 113,
      "²": 114,
      "³": 115,
      "´": 116,
      "µ": 117,
      "¶": 118,
      "·": 119,
      "¸": 120,
      "¹": 121,
      "º": 122,
      "»": 123,
      "¼": 124,
      "½": 125,
      "¾": 126,
      "¿": 127,
      "Â": 128,
      "Ã": 129,
      "Ä": 130,
      "Å": 131,
      "Æ": 132,
      "Ç": 133,
      "È": 134,
      "É": 135,
      "Ê": 136,
      "Ë": 137,
      "Ì": 138,
      "Î": 139,
      "Ï": 140,
      "Ð": 141,
      "Ñ": 142,
      "Ò": 143,
      "Ô": 144,
      "Õ": 145,
      "Ö": 146,
      "×": 147,
      "Ø": 148,
      "Ù": 149,
      "Ú": 150,
      "Ü": 151,
      "Ý": 152,
      "à": 153,
      "á": 154,
      "â": 155,
      "ã": 156,
      "ä": 157,
      "å": 158,
      "æ": 159,
      "ç": 160,
      "è": 161,
      "é": 162,
      "ê": 163,
      "ë": 164,
      "ì": 165,
      "í": 166,
      "ï": 167,
      "ð": 168,
      "Ċ": 169,
      "Ġ": 170,
      "Ģ": 171,
      "ģ": 172,
      "Ĥ": 173,
      "ĥ": 174,
      "Ħ": 175,
      "ħ": 176,
      "Ĩ": 177,
      "ĩ": 178,
      "Ī": 179,
      "ī": 180,
      "Ĭ": 181,
      "ĭ": 182,
      "Į": 183,
      "į": 184,
      "İ": 185,
      "ı": 186,
      "Ĳ": 187,
      "ĳ": 188,
      "Ĵ": 189,
      "ĵ": 190,
      "Ķ": 191,
      "ķ": 192,
      "ĸ": 193,
      "Ĺ": 194,
      "ĺ": 195,
      "Ļ": 196,
      "ļ": 197,
      "Ľ": 198,
      "ľ": 199,
      "Ŀ": 200,
      "ŀ": 201,
      "Ł": 202,
      "ł": 203,
      "Ń": 204,
      "Ġt": 205,
      "Ġa": 206,
      "in": 207,
      "he": 208,
      "on": 209,
      "re": 210,
      "er": 211,
      "Ġthe": 212,
      "at": 213,
      "Ġs": 214,
      "Ġo": 215,
      "en": 216,
      "Ġc": 217,
      "es": 218,
      "nd": 219,
      "it": 220,
      "Ġw": 221,
      "or": 222,
      "is": 223,
      "al": 224,
      "ing": 225,
      "Ġp": 226,
      "Ġf": 227,
      "an": 228,
      "ed": 229,
      "Ġb": 230,
      "Ġof": 231,
      "Ġin": 232,
      "ar": 233,
      "ou": 234,
      "ion": 235,
      "Ġand": 236,
      "Ġm": 237,
      "ic": 238,
      "Ġto": 239,
      "Ġd": 240,
      "le": 241,
      "ro": 242,
      "as": 243,
      "ent": 244,
      "Ġh": 245,
      "ct": 246,
      "Ġth": 247,
      "Ġe": 248,
      "Ġre": 249,
      "om": 250,
      "st": 251,
      "il": 252,
      "ve": 253,
      "Ġl": 254,
      "Ġn": 255,
      "et": 256,
      "ly": 257,
      "ĠA": 258,
      "ation": 259,
      "ol": 260,
      "ĠT": 261,
      "ra": 262,
      "im": 263,
      "Ġg": 264,
      "Ġis": 265,
      "id": 266,
      "==": 267,
      "ce": 268,
      "ut": 269,
      "ĠS": 270,
      "ig": 271,
      "ot": 272,
      "us": 273,
      "ur": 274,
      "ĠI": 275,
      "Ġfor": 276,
      "Ġbe": 277,
      "ch": 278,
      "ow": 279,
      "ĠC": 280,
      "Ġon": 281,
      "ver": 282,
      "el": 283,
      "Ġst": 284,
      "am": 285,
      "Ġy": 286,
      "âĢ": 287,
      "ul": 288,
      "ith": 289,
      "ay": 290,
      "ir": 291,
      "Ġthat": 292,
      "Ġpro": 293,
      "Ġcon": 294,
      "Ġas": 295,
      "ĠM": 296,
      "Ġwith": 297,
      "se": 298,
      "ad": 299,
      "Ġ(": 300,
      "un": 301,
      "Ġan": 302,
      "if": 303,
      "ers": 304,
      "Ġyou": 305,
      "Ġal": 306,
      "ĠP": 307,
      "her": 308,
      "ment": 309,
      "Ġ1": 310,
      "Ġit": 311,
      "ate": 312,
      "ter": 313,
      "ĠB": 314,
      "Ġwh": 315,
      "ist": 316,
      "ge": 317,
      "od": 318,
      "ab": 319,
      "Ġex": 320,
      "Ġor": 321,
      "Ġcom": 322,
      "ess": 323,
      "ies": 324,
      "op": 325,
      "Ġare": 326,
      "ĠThe": 327,
      "res": 328,
      "qu": 329,
      "ity": 330,
      "Ġde": 331,
      "th": 332,
      "um": 333,
      "ive": 334,
      "Ġv": 335,
      "ect": 336,
      "est": 337,
      "pp": 338,
      "ĠH": 339,
      "ill": 340,
      "os": 341,
      "Ġwe": 342,
      "iv": 343,
      "and": 344,
      "ĠD": 345,
      "Ġ2": 346,
      "ore": 347,
      "igh": 348,
      "ĠR": 349,
      "ac": 350,
      "ĠW": 351,
      "em": 352,
      "ĠF": 353,
      "ke": 354,
      "Ġat": 355,
      "ĠE": 356,
      "Ġby": 357,
      "Ġsu": 358,
      "oc": 359,
      "ain": 360,
      "Ġhe": 361,
      "ant": 362,
      "rom": 363,
      "ri": 364,
      "ld": 365,
      "ĠL": 366,
      "ew": 367,
      "ort": 368,
      "nt": 369,
      "ial": 370,
      "Ġse": 371,
      "Ġha": 372,
      "ud": 373,
      "Ġr": 374,
      "ĠN": 375,
      "Ġus": 376,
      "Ġwas": 377,
      "ure": 378,
      "Ġfrom": 379,
      "ĠG": 380,
      "art": 381,
      "ical": 382,
      "ions": 383,
      "Ġch": 384,
      "Ġen": 385,
      "ight": 386,
      "pt": 387,
      "og": 388,
      "pl": 389,
      "âĢĻ": 390,
      "Ġle": 391,
      "Ġcan": 392,
      "'s": 393,
      "Ġthis": 394,
      "ust": 395,
      "all": 396,
      "Ġsh": 397,
      "rou": 398,
      "ard": 399,
      "our": 400,
      "per": 401,
      "Ġnot": 402,
      "ĠO": 403,
      "Ġhave": 404,
      "00": 405,
      "Ġu": 406,
      "Ġsp": 407,
      "red": 408,
      "gh": 409,
      "iz": 410,
      "ine": 411,
      "ag": 412,
      "Ġint": 413,
      "ost": 414,
      "Ġcomp": 415,
      "ations": 416,
      "out": 417,
      "ans": 418,
      "act": 419,
      "ated": 420,
      "Ġpl": 421,
      "====": 422,
      "Ġab": 423,
      "=====": 424,
      "ich": 425,
      "du": 426,
      "Ġwor": 427,
      "ide": 428,
      "ec": 429,
      "ff": 430,
      "end": 431,
      "ast": 432,
      "ome": 433,
      "ip": 434,
      "ĠU": 435,
      "age": 436,
      "ther": 437,
      "ous": 438,
      "ell": 439,
      "Ġ$": 440,
      "Ġad": 441,
      "ear": 442,
      "ult": 443,
      "ould": 444,
      "Ġim": 445,
      "Ġcont": 446,
      "ĠJ": 447,
      "ance": 448,
      "ap": 449,
      "ib": 450,
      "Ġwhe": 451,
      "Ġall": 452,
      "orm": 453,
      "ak": 454,
      "cc": 455,
      "Ġyour": 456,
      "Ġres": 457,
      "The": 458,
      "Ġun": 459,
      "ong": 460,
      "cl": 461,
      "Ġ\\": 462,
      "ia": 463,
      "ru": 464,
      "ĠIn": 465,
      "ign": 466,
      "Ġtheir": 467,
      "able": 468,
      "Ġwill": 469,
      "Ġk": 470,
      "are": 471,
      "ĠâĢ": 472,
      "ction": 473,
      "Ġme": 474,
      "Ġwhich": 475,
      "Ġhas": 476,
      "ere": 477,
      "vel": 478,
      "Ġcl": 479,
      "ok": 480,
      "ary": 481,
      "ry": 482,
      "ep": 483,
      "Ġ\"": 484,
      "Ġj": 485,
      "Ġne": 486,
      "Ġapp": 487,
      "ass": 488,
      "ual": 489,
      "ĠTh": 490,
      "ime": 491,
      "Ġbut": 492,
      "ence": 493,
      "Ġdis": 494,
      "ack": 495,
      "ber": 496,
      "Ġdo": 497,
      "..": 498,
      "ice": 499,
      "ind": 500,
      "ition": 501,
      "Ġper": 502,
      "so": 503,
      "ress": 504,
      "Ġmore": 505,
      "Ġman": 506,
      "ue": 507,
      "Ġte": 508,
      "form": 509,
      "01": 510,
      "Ġgo": 511,
      "ach": 512,
      "av": 513,
      "ace": 514,
      "Ġout": 515,
      "ase": 516,
      "ents": 517,
      "ĠK": 518,
      "Ġar": 519,
      "Ġthey": 520,
      "ĠSt": 521,
      "Ġone": 522,
      "ile": 523,
      "ite": 524,
      "ame": 525,
      "Ġ-": 526,
      "Ġev": 527,
      "ces": 528,
      "ire": 529,
      "Ġother": 530,
      "ake": 531,
      "Ġso": 532,
      "ks": 533,
      "Ġpart": 534,
      "ike": 535,
      "ors": 536,
      "ub": 537,
      "ens": 538,
      "Ġimp": 539,
      "reat": 540,
      "Ġup": 541,
      "ose": 542,
      "very": 543,
      "ook": 544,
      "ph": 545,
      "ail": 546,
      "int": 547,
      "ang": 548,
      "Ġalso": 549,
      "ord": 550,
      "Ġhis": 551,
      "Ġ3": 552,
      "ount": 553,
      "ian": 554,
      "ree": 555,
      "oll": 556,
      "one": 557,
      "Ġits": 558,
      ").": 559,
      "te": 560,
      "ound": 561,
      "Ġtra": 562,
      "ric": 563,
      "Ġsc": 564,
      "Ġ19": 565,
      "ath": 566,
      "erv": 567,
      "Ġqu": 568,
      "ond": 569,
      "Ġwere": 570,
      "ates": 571,
      "Ġabout": 572,
      "ie": 573,
      "ory": 574,
      "ĠV": 575,
      "ater": 576,
      "ments": 577,
      "Ġpre": 578,
      "Ġinto": 579,
      "Ġover": 580,
      "nder": 581,
      "Ġcomm": 582,
      "ating": 583,
      "Ġrec": 584,
      "rough": 585,
      "now": 586,
      "ities": 587,
      "ll": 588,
      "ish": 589,
      "ally": 590,
      "ĠCh": 591,
      "),": 592,
      "Ġ=====": 593,
      "ft": 594,
      "Ġem": 595,
      "Ġoff": 596,
      "ms": 597,
      "Ġcons": 598,
      "Ġind": 599,
      "ark": 600,
      "Ġro": 601,
      "Ġtr": 602,
      "ons": 603,
      "Ġtime": 604,
      "tern": 605,
      "clud": 606,
      "Ġour": 607,
      "Ġsy": 608,
      "ings": 609,
      "Ġwho": 610,
      "fere": 611,
      "Ġlike": 612,
      "vers": 613,
      "Ġam": 614,
      "Ġag": 615,
      "lect": 616,
      "ific": 617,
      "lic": 618,
      "Ġthan": 619,
      "Ġsome": 620,
      "olog": 621,
      "Ġbet": 622,
      "we": 623,
      "ays": 624,
      "Ġ201": 625,
      "Ġdes": 626,
      "Ġwhen": 627,
      "ov": 628,
      "Ġthere": 629,
      "ĠIt": 630,
      "irst": 631,
      "Ġbeen": 632,
      "ari": 633,
      "ough": 634,
      "Ġacc": 635,
      "ild": 636,
      "Ġthese": 637,
      "ple": 638,
      "ove": 639,
      "ility": 640,
      "ĠY": 641,
      "aus": 642,
      "Ġwork": 643,
      "rit": 644,
      "ics": 645,
      "wo": 646,
      "Ġbec": 647,
      "ob": 648,
      "Ġif": 649,
      "xt": 650,
      "ys": 651,
      "Ġany": 652,
      "Ġyear": 653,
      "Ġfin": 654,
      "uring": 655,
      "ract": 656,
      "old": 657,
      "Ġprov": 658,
      "Ġinclud": 659,
      "Ġrel": 660,
      "ative": 661,
      "ĠThis": 662,
      "Ġreg": 663,
      "âĢĿ": 664,
      "Ġpr": 665,
      "Ġunder": 666,
      "Ġnew": 667,
      "ced": 668,
      "Ġ=": 669,
      "Ġsa": 670,
      "eg": 671,
      "Ġhad": 672,
      "Ġthem": 673,
      "ject": 674,
      "les": 675,
      "Ġra": 676,
      "ational": 677,
      "ning": 678,
      "row": 679,
      "Ġsuch": 680,
      "Ġrep": 681,
      "rib": 682,
      "als": 683,
      "Ġhow": 684,
      "Ġwould": 685,
      "Ġmay": 686,
      "Ġstud": 687,
      "ular": 688,
      "Ġinc": 689,
      "Ġknow": 690,
      "Ġ4": 691,
      "mer": 692,
      "Ġpe": 693,
      "Ġprodu": 694,
      "ures": 695,
      "Ġthrough": 696,
      "ood": 697,
      "Ġph": 698,
      "Ġmy": 699,
      "Ġdif": 700,
      "Ġco": 701,
      "hed": 702,
      "pect": 703,
      "ution": 704,
      "Ġfirst": 705,
      "ne": 706,
      "Ġmod": 707,
      "velop": 708,
      "Ġact": 709,
      "Ġeff": 710,
      "ful": 711,
      "ĠUn": 712,
      "Ġac": 713,
      "Ġgen": 714,
      "Ġass": 715,
      "Ġpo": 716,
      "Ġtrans": 717,
      "Ġfe": 718,
      "Ġtwo": 719,
      "stem": 720,
      "round": 721,
      "oth": 722,
      "eb": 723,
      "Ġonly": 724,
      "ased": 725,
      "Ġwhat": 726,
      "fter": 727,
      "Ġinv": 728,
      "erm": 729,
      "Ġnum": 730,
      "ĠAl": 731,
      "Ġno": 732,
      "ower": 733,
      "Ġfl": 734,
      "eth": 735,
      "##": 736,
      "Ġ5": 737,
      "ng": 738,
      "Ġadd": 739,
      "Ġmost": 740,
      "yp": 741,
      "ise": 742,
      "Ġob": 743,
      "tain": 744,
      "ient": 745,
      "ck": 746,
      "Ġuse": 747,
      "Ġset": 748,
      "ween": 749,
      "Ġneed": 750,
      "Ġpos": 751,
      "ĠâĢľ": 752,
      "hen": 753,
      "Ġbl": 754,
      "oy": 755,
      "ting": 756,
      "In": 757,
      "Ġbetween": 758,
      "iss": 759,
      "ople": 760,
      "vi": 761,
      "ata": 762,
      "Ġinter": 763,
      "chn": 764,
      "Ġcol": 765,
      "pport": 766,
      "Ġspec": 767,
      "Ġsub": 768,
      "own": 769,
      "ick": 770,
      "ts": 771,
      "ram": 772,
      "ef": 773,
      "cy": 774,
      "ĠAs": 775,
      "ĠâĢĵ": 776,
      "Ġrem": 777,
      "Ġexper": 778,
      "Ġwhere": 779,
      "ause": 780,
      "hes": 781,
      "Ġget": 782,
      "Ġvari": 783,
      "ink": 784,
      "Ġused": 785,
      "ied": 786,
      "rop": 787,
      "aw": 788,
      "ont": 789,
      "Ġatt": 790,
      "ward": 791,
      "Ġdevelop": 792,
      "Ġform": 793,
      "ible": 794,
      "Ġdec": 795,
      "Ġ&": 796,
      "Ġsystem": 797,
      "Ġjust": 798,
      "its": 799,
      "ange": 800,
      "ices": 801,
      "cess": 802,
      "ble": 803,
      "ues": 804,
      "Ġdiffere": 805,
      "lp": 806,
      "ident": 807,
      "Ġpeople": 808,
      "__": 809,
      "Ġbu": 810,
      "Ġinst": 811,
      "Ġher": 812,
      "Ġsim": 813,
      "Ġexp": 814,
      "Ġ200": 815,
      "Ġpres": 816,
      "Ġhigh": 817,
      "Ġexam": 818,
      "Ġloc": 819,
      "Ġmany": 820,
      "Ġthen": 821,
      "hip": 822,
      "ten": 823,
      "ĠHe": 824,
      "Ġsign": 825,
      "alth": 826,
      "ĠAn": 827,
      "Ġstr": 828,
      "Ġhelp": 829,
      "Ġwell": 830,
      "Ġdef": 831,
      "ever": 832,
      "ily": 833,
      "ollow": 834,
      "Ġsur": 835,
      "Ġfun": 836,
      "wn": 837,
      "ade": 838,
      "erson": 839,
      "arch": 840,
      "elf": 841,
      "Ġ0": 842,
      "cept": 843,
      "ict": 844,
      "ĠPro": 845,
      "ience": 846,
      "arg": 847,
      "urn": 848,
      "Ġsol": 849,
      "gan": 850,
      "Ġdisc": 851,
      "ize": 852,
      "fore": 853,
      "Ġval": 854,
      "Ġequ": 855,
      "--": 856,
      "ited": 857,
      "ife": 858,
      "ock": 859,
      "ĠWe": 860,
      "ages": 861,
      "Ġcould": 862,
      "Ġmake": 863,
      "...": 864,
      "Ġtechn": 865,
      "Ġdist": 866,
      "ĠCom": 867,
      "ology": 868,
      "Ġsm": 869,
      "ines": 870,
      "ically": 871,
      "ives": 872,
      "ential": 873,
      "Ġsee": 874,
      "Ġgener": 875,
      "Ġwhile": 876,
      "'t": 877,
      "ized": 878,
      "iqu": 879,
      "uch": 880,
      "ork": 881,
      "Ġserv": 882,
      "Ġevery": 883,
      "Ġent": 884,
      "Ġdet": 885,
      "aking": 886,
      "Ġdata": 887,
      "Ġsec": 888,
      "Ġrequ": 889,
      "oci": 890,
      "Ġ6": 891,
      "ren": 892,
      "Ġ*": 893,
      "$$": 894,
      "Ġke": 895,
      "Ġext": 896,
      "Ġafter": 897,
      "ural": 898,
      "Ġeach": 899,
      "Ġins": 900,
      "ature": 901,
      "ros": 902,
      "formation": 903,
      "erg": 904,
      "ĠAr": 905,
      "Ġfollow": 906,
      "ruct": 907,
      "ĠWh": 908,
      "ix": 909,
      "Ġyears": 910,
      "ax": 911,
      "ists": 912,
      "Ġmin": 913,
      "Ġart": 914,
      "stand": 915,
      "imes": 916,
      "Ġcomple": 917,
      "}{": 918,
      "ism": 919,
      "Ġback": 920,
      "Ġmat": 921,
      "ality": 922,
      "Ġinf": 923,
      "Ġplay": 924,
      "Ġcent": 925,
      "uc": 926,
      "ty": 927,
      "Ġduring": 928,
      "Th": 929,
      "Ġprocess": 930,
      "roup": 931,
      "ness": 932,
      "Ġboth": 933,
      "ince": 934,
      "Ġresult": 935,
      "com": 936,
      "Ġpol": 937,
      "Ġdi": 938,
      "Ġdifferent": 939,
      "Ġworld": 940,
      "led": 941,
      "Ġcount": 942,
      "ĠFor": 943,
      "Ġed": 944,
      "Ġcre": 945,
      "Ġprovid": 946,
      "iel": 947,
      "ars": 948,
      "Ġeven": 949,
      "cer": 950,
      "Ġlong": 951,
      "Ġgra": 952,
      "Ġmed": 953,
      "Ġshould": 954,
      "Ġpoint": 955,
      "Ġusing": 956,
      "Ġref": 957,
      "Ġprog": 958,
      "Ġlook": 959,
      "ute": 960,
      "Ġ10": 961,
      "Ġway": 962,
      "ublic": 963,
      "Ġcur": 964,
      "Ġright": 965,
      "hem": 966,
      "Ġpartic": 967,
      "Ġeffect": 968,
      "ted": 969,
      "fra": 970,
      "land": 971,
      "_{": 972,
      "ually": 973,
      "vent": 974,
      "Ġear": 975,
      "Ġbel": 976,
      "Ġexpl": 977,
      "Ġincre": 978,
      "iness": 979,
      "Ġcommun": 980,
      "Ġcall": 981,
      "Ġshe": 982,
      "other": 983,
      "ins": 984,
      "ional": 985,
      "Ġsaid": 986,
      "meric": 987,
      "ĠRe": 988,
      "Ġvery": 989,
      "ets": 990,
      "Ġend": 991,
      "day": 992,
      "ool": 993,
      "up": 994,
      "ants": 995,
      "ability": 996,
      "Ġnumber": 997,
      "ien": 998,
      "und": 999,
      "19": 1000,
      "anc": 1001,
      "Ġbecause": 1002,
      "ĠIf": 1003,
      "Ġaut": 1004,
      "Ġlead": 1005,
      "Ġown": 1006,
      "Ġthose": 1007,
      "any": 1008,
      "Ġtyp": 1009,
      "Ġfind": 1010,
      "arm": 1011,
      "Ġfound": 1012,
      "Ġest": 1013,
      "irect": 1014,
      "Ġperson": 1015,
      "Ġcor": 1016,
      "con": 1017,
      "tle": 1018,
      "ined": 1019,
      "Ġstate": 1020,
      "ium": 1021,
      "Ġfam": 1022,
      "der": 1023,
      "ety": 1024,
      "Ġshow": 1025,
      "Ġmain": 1026,
      "ĠHow": 1027,
      "ining": 1028,
      "ĠAd": 1029,
      "ield": 1030,
      "Ġ7": 1031,
      "eng": 1032,
      "dition": 1033,
      "Ġgreat": 1034,
      "Ġdesign": 1035,
      "nce": 1036,
      "ital": 1037,
      "^{": 1038,
      "Ġcar": 1039,
      "Ġmem": 1040,
      "air": 1041,
      "Ġpop": 1042,
      "ron": 1043,
      "ateg": 1044,
      "Ġmark": 1045,
      "ivid": 1046,
      "Ġvis": 1047,
      "ex": 1048,
      ".,": 1049,
      "arge": 1050,
      "Ġcour": 1051,
      "ider": 1052,
      "right": 1053,
      "to": 1054,
      "Ġbeing": 1055,
      "Ġagain": 1056,
      "Ġgu": 1057,
      "ivers": 1058,
      "Ġdoes": 1059,
      "ered": 1060,
      "ĠCon": 1061,
      "ral": 1062,
      "ving": 1063,
      "line": 1064,
      "ĠSp": 1065,
      "Ġmon": 1066,
      "the": 1067,
      "ven": 1068,
      "rent": 1069,
      "Ġfact": 1070,
      "uss": 1071,
      "inc": 1072,
      "Ġ'": 1073,
      "ious": 1074,
      "ĠAmeric": 1075,
      "Ġinformation": 1076,
      "Ġbefore": 1077,
      "Ġimport": 1078,
      "els": 1079,
      "ases": 1080,
      "Ġhealth": 1081,
      "Ġpat": 1082,
      "Ġsame": 1083,
      "eweb": 1084,
      "Ġfineweb": 1085,
      "over": 1086,
      "Ġstart": 1087,
      "ĠEx": 1088,
      "Ġmade": 1089,
      "Ġ20": 1090,
      "Ġnow": 1091,
      "ug": 1092,
      "usiness": 1093,
      "amp": 1094,
      "ection": 1095,
      "Ġser": 1096,
      "Ġproduct": 1097,
      "ave": 1098,
      "Ġopt": 1099,
      "Ġsupport": 1100,
      "ather": 1101,
      "Ġconst": 1102,
      "ash": 1103,
      "iven": 1104,
      "Ġlear": 1105,
      "Ġmuch": 1106,
      "Ġhand": 1107,
      "Ġ18": 1108,
      "Ġmet": 1109,
      "iving": 1110,
      "Ġav": 1111,
      "ization": 1112,
      "Ġresp": 1113,
      "ved": 1114,
      "Ġincluding": 1115,
      "Ġ8": 1116,
      "Ġsl": 1117,
      "Ġhim": 1118,
      "bers": 1119,
      "ier": 1120,
      "Ġcontin": 1121,
      "ccess": 1122,
      "ross": 1123,
      "Ġcare": 1124,
      "rodu": 1125,
      "Ġret": 1126,
      "Ġallow": 1127,
      "imate": 1128,
      "Ġgl": 1129,
      "Ġdep": 1130,
      "Ġsk": 1131,
      "10": 1132,
      "ank": 1133,
      "Ġread": 1134,
      "Ġreal": 1135,
      "ull": 1136,
      "ale": 1137,
      "Ġadv": 1138,
      "Ġthree": 1139,
      "Ġgood": 1140,
      "io": 1141,
      "math": 1142,
      "ner": 1143,
      "Ġaround": 1144,
      "Ġfil": 1145,
      "Ġdown": 1146,
      "Ġgroup": 1147,
      "Ġwant": 1148,
      "ished": 1149,
      "000": 1150,
      "view": 1151,
      "âĢĵ": 1152,
      "ared": 1153,
      "cent": 1154,
      "Ġdid": 1155,
      "Ġtake": 1156,
      "itions": 1157,
      "Ġappro": 1158,
      "Ġpract": 1159,
      "tt": 1160,
      "ethod": 1161,
      "ĠĊ": 1162,
      "Ġeng": 1163,
      "Ġwater": 1164,
      "Ġposs": 1165,
      "Ġvi": 1166,
      "Ġproper": 1167,
      "Ġhum": 1168,
      "Ġsom": 1169,
      "ĠNew": 1170,
      "ĠAnd": 1171,
      "ĠSc": 1172,
      "read": 1173,
      "itive": 1174,
      "âĢ¢": 1175,
      "pen": 1176,
      "Ġperform": 1177,
      "Ġpower": 1178,
      "Ġpot": 1179,
      "Ġconf": 1180,
      "ĠQ": 1181,
      "Ġplan": 1182,
      "}$": 1183,
      "ustom": 1184,
      "Ġclass": 1185,
      "Ġchild": 1186,
      "Ġbo": 1187,
      "ves": 1188,
      "Ġlit": 1189,
      "Ġele": 1190,
      "get": 1191,
      "Ġgrow": 1192,
      "ify": 1193,
      "Ġorgan": 1194,
      "rol": 1195,
      "20": 1196,
      "ired": 1197,
      "ĠSe": 1198,
      "Ġexample": 1199,
      "Ġfunction": 1200,
      "ring": 1201,
      "Ġprof": 1202,
      "Ġlife": 1203,
      "gg": 1204,
      "au": 1205,
      "ĠDe": 1206,
      "Ġsmall": 1207,
      "ason": 1208,
      "Ġstand": 1209,
      "Ġelect": 1210,
      "ision": 1211,
      "Ġtest": 1212,
      "ering": 1213,
      "chool": 1214,
      "ĠYou": 1215,
      "Ġdel": 1216,
      "ĠSh": 1217,
      "way": 1218,
      "Ġ9": 1219,
      "Ġproble": 1220,
      "Ġunderstand": 1221,
      "ik": 1222,
      "ah": 1223,
      "frac": 1224,
      "iron": 1225,
      "Ġcle": 1226,
      "angu": 1227,
      "Ġthink": 1228,
      "ulation": 1229,
      "Ġ+": 1230,
      "Ġdem": 1231,
      "erest": 1232,
      "Ġ$\\": 1233,
      "Ġcap": 1234,
      "Ġoper": 1235,
      "Ġbusiness": 1236,
      "Ġthough": 1237,
      "aj": 1238,
      "less": 1239,
      "sc": 1240,
      "Ġhere": 1241,
      "pr": 1242,
      "Ġchar": 1243,
      "ury": 1244,
      "Ġmust": 1245,
      "par": 1246,
      "ĠThey": 1247,
      "Ġdon": 1248,
      "ĠInd": 1249,
      "ĠCl": 1250,
      "oun": 1251,
      "Ġdirect": 1252,
      "Ġoften": 1253,
      "Ġprom": 1254,
      "ĠPh": 1255,
      "inal": 1256,
      "port": 1257,
      "Ġsignific": 1258,
      "raph": 1259,
      "Ġday": 1260,
      "akes": 1261,
      "Ġanal": 1262,
      "Ġtop": 1263,
      "oh": 1264,
      "ton": 1265,
      "ains": 1266,
      "apt": 1267,
      "ator": 1268,
      "Ġrese": 1269,
      "Ġwithout": 1270,
      "Ġlevel": 1271,
      "ially": 1272,
      "esp": 1273,
      "Ġcustom": 1274,
      "Ġgover": 1275,
      "bs": 1276,
      "ividual": 1277,
      "ivity": 1278,
      "az": 1279,
      "Ġve": 1280,
      "Ġbest": 1281,
      "Ġleg": 1282,
      "Ġ$$": 1283,
      "ĠZ": 1284,
      "ples": 1285,
      "atic": 1286,
      "Ġmus": 1287,
      "Ġmight": 1288,
      "Ġlast": 1289,
      "This": 1290,
      "ann": 1291,
      "ense": 1292,
      "Ġeas": 1293,
      "Ġstre": 1294,
      "acter": 1295,
      "por": 1296,
      "Ġmult": 1297,
      "Ġsuccess": 1298,
      "ocial": 1299,
      "Ġmethod": 1300,
      "Ġwithin": 1301,
      "viron": 1302,
      "oss": 1303,
      "ware": 1304,
      "ĠAt": 1305,
      "de": 1306,
      "Ġide": 1307,
      "Ġdr": 1308,
      "Ġbased": 1309,
      "urther": 1310,
      "Ġteam": 1311,
      "Ġpur": 1312,
      "abl": 1313,
      "Ġlarge": 1314,
      "Ġinclude": 1315,
      "Ġbeh": 1316,
      "Ġinterest": 1317,
      "ern": 1318,
      "Ġhome": 1319,
      "Ġline": 1320,
      "ek": 1321,
      "Ġhist": 1322,
      "Ġcult": 1323,
      "Ġ[": 1324,
      "Ġsecond": 1325,
      "Ġredu": 1326,
      ".\"": 1327,
      "ames": 1328,
      "ration": 1329,
      "ĠIs": 1330,
      "Ġgovern": 1331,
      "fer": 1332,
      "Ġquest": 1333,
      "Ġindividual": 1334,
      "Ġprot": 1335,
      "Ġpar": 1336,
      "Ġpost": 1337,
      "Ġter": 1338,
      "Ġstill": 1339,
      "Ġpresent": 1340,
      "outh": 1341,
      "II": 1342,
      "Ġpublic": 1343,
      "edia": 1344,
      "utions": 1345,
      "Ġlist": 1346,
      "ript": 1347,
      "Ġinvol": 1348,
      "Ġaff": 1349,
      "osed": 1350,
      "alk": 1351,
      "cing": 1352,
      "ĠBy": 1353,
      "ergy": 1354,
      "iversity": 1355,
      "oid": 1356,
      "ĠTe": 1357,
      "ified": 1358,
      "Ġplace": 1359,
      "reen": 1360,
      "ocus": 1361,
      "clus": 1362,
      "Ġrepres": 1363,
      "Ġvarious": 1364,
      "ody": 1365,
      "put": 1366,
      "Ġet": 1367,
      "Ġcase": 1368,
      "ode": 1369,
      "Ġimpro": 1370,
      "ording": 1371,
      "Ġbuild": 1372,
      "Ġocc": 1373,
      "Ġlaw": 1374,
      "ran": 1375,
      "ination": 1376,
      "**": 1377,
      "Ġimportant": 1378,
      "Ġiss": 1379,
      "Ġmeas": 1380,
      "Ġwrit": 1381,
      "ards": 1382,
      "agement": 1383,
      "Ġche": 1384,
      "orth": 1385,
      "Ġstudents": 1386,
      "Ġproject": 1387,
      "Ġmarket": 1388,
      "ived": 1389,
      "Ġlangu": 1390,
      "ole": 1391,
      "ency": 1392,
      "Ġdevelopment": 1393,
      "Ġfollowing": 1394,
      "ouse": 1395,
      "Ġless": 1396,
      "Ġbook": 1397,
      "orts": 1398,
      "Ġens": 1399,
      "Ġpotential": 1400,
      "Ġz": 1401,
      "____": 1402,
      "Ġ.": 1403,
      "Ġland": 1404,
      "ote": 1405,
      "Ġcurrent": 1406,
      "ances": 1407,
      "Ġconsider": 1408,
      "ique": 1409,
      "Ġcell": 1410,
      "Ġsever": 1411,
      "Ġknown": 1412,
      "Ġi": 1413,
      "Ġrest": 1414,
      "Ġident": 1415,
      "Ġx": 1416,
      "Ġtem": 1417,
      "irc": 1418,
      "wards": 1419,
      "ĠThese": 1420,
      "ently": 1421,
      "Ġdesc": 1422,
      "ĠBut": 1423,
      "ta": 1424,
      "of": 1425,
      "olution": 1426,
      "ĠThere": 1427,
      "ead": 1428,
      "lu": 1429,
      "Ġsince": 1430,
      "Ġrun": 1431,
      "ploy": 1432,
      "orn": 1433,
      "Ġmean": 1434,
      "Ġavail": 1435,
      "Ġnon": 1436,
      "Ġcho": 1437,
      "aterial": 1438,
      "ention": 1439,
      "Ġbra": 1440,
      "Ġorder": 1441,
      "yn": 1442,
      "Ġlocal": 1443,
      "50": 1444,
      "Ġopen": 1445,
      "mit": 1446,
      "Ġben": 1447,
      "Ġstudy": 1448,
      "Ġfac": 1449,
      "âĢĶ": 1450,
      "ert": 1451,
      "Ġcreat": 1452,
      "Ġspe": 1453,
      "ĠHowever": 1454,
      "ways": 1455,
      "Ġintern": 1456,
      "man": 1457,
      "Ġpass": 1458,
      "12": 1459,
      "rist": 1460,
      "ster": 1461,
      "illion": 1462,
      "ources": 1463,
      "Ġconn": 1464,
      "ries": 1465,
      "Ġamong": 1466,
      "ior": 1467,
      "iod": 1468,
      "ĠPl": 1469,
      "ograph": 1470,
      "{\\": 1471,
      "Ġseveral": 1472,
      "Ġfew": 1473,
      "oint": 1474,
      "ilar": 1475,
      "Ġlim": 1476,
      "ĠSo": 1477,
      "app": 1478,
      "Ġsignificant": 1479,
      "mb": 1480,
      "ertain": 1481,
      "conom": 1482,
      "ively": 1483,
      "ots": 1484,
      "Ġapplic": 1485,
      "Ġaccess": 1486,
      "here": 1487,
      "ĠEn": 1488,
      "Ġpress": 1489,
      "imal": 1490,
      "me": 1491,
      "Ġtri": 1492,
      "Ġanother": 1493,
      "Ġenviron": 1494,
      "Ġfocus": 1495,
      "Ġfree": 1496,
      "Ġfield": 1497,
      "Ġdue": 1498,
      "ray": 1499,
      "Ġcalled": 1500,
      "Ġprogram": 1501,
      "Ġagainst": 1502,
      "Ġlet": 1503,
      "istic": 1504,
      "ental": 1505,
      "rid": 1506,
      "ission": 1507,
      "}\\": 1508,
      "Ġprovide": 1509,
      "Ġchang": 1510,
      "Ġ199": 1511,
      "Ġarea": 1512,
      "Ġsit": 1513,
      "Ġvalue": 1514,
      "lex": 1515,
      "izing": 1516,
      "ds": 1517,
      "ĠX": 1518,
      "ories": 1519,
      "ps": 1520,
      "ians": 1521,
      "ajor": 1522,
      "Ġrece": 1523,
      "val": 1524,
      "Ġgiven": 1525,
      "Ġorig": 1526,
      "Ġinteg": 1527,
      "Ġeduc": 1528,
      "Ġcomput": 1529,
      "201": 1530,
      "Wh": 1531,
      "Ġstrateg": 1532,
      "ĠOr": 1533,
      "Ġhuman": 1534,
      "We": 1535,
      "work": 1536,
      "oad": 1537,
      "med": 1538,
      "Ġinvest": 1539,
      "Ġcommon": 1540,
      "Ġbas": 1541,
      "ma": 1542,
      "ends": 1543,
      "Ġexperience": 1544,
      "Ġ12": 1545,
      "ights": 1546,
      "oring": 1547,
      "Ġstruct": 1548,
      "Ġant": 1549,
      "Ġcontrol": 1550,
      "ape": 1551,
      "Ġavailable": 1552,
      "Ġbetter": 1553,
      "Ġview": 1554,
      "Ġ17": 1555,
      "Ġtreat": 1556,
      "Ġparticular": 1557,
      "Ġfamily": 1558,
      "raft": 1559,
      "Ġspace": 1560,
      "for": 1561,
      "ients": 1562,
      "ĠAmerican": 1563,
      "til": 1564,
      "Ġrele": 1565,
      "Ġindust": 1566,
      "ĠLe": 1567,
      "ling": 1568,
      "Ġmodel": 1569,
      "isc": 1570,
      "Ġtoo": 1571,
      "omen": 1572,
      "Ġcos": 1573,
      "text": 1574,
      "ĠRes": 1575,
      "Ġcost": 1576,
      "Ġfour": 1577,
      "ĠAm": 1578,
      "Ġcourse": 1579,
      "play": 1580,
      "As": 1581,
      "Ġris": 1582,
      "Ġchange": 1583,
      "ored": 1584,
      "ope": 1585,
      "Ġ15": 1586,
      "ibility": 1587,
      "Ġobject": 1588,
      "ilities": 1589,
      "ret": 1590,
      "agn": 1591,
      "rans": 1592,
      "abor": 1593,
      "Ġel": 1594,
      "ĠOn": 1595,
      "Ġaddition": 1596,
      "ĠEu": 1597,
      "Ġsaf": 1598,
      "Ġdev": 1599,
      "Ġsing": 1600,
      "Ġmove": 1601,
      "Ġalong": 1602,
      "Ġhapp": 1603,
      "Ġrepresent": 1604,
      "Ġbre": 1605,
      "Ġsupp": 1606,
      "Ġchall": 1607,
      "ns": 1608,
      "atures": 1609,
      "Ġmaterial": 1610,
      ")$": 1611,
      "iting": 1612,
      "Ġreport": 1613,
      "Ġreally": 1614,
      "oot": 1615,
      "hor": 1616,
      "ĠEng": 1617,
      "----": 1618,
      "Ġenergy": 1619,
      "yle": 1620,
      "Ġcal": 1621,
      "Ġobs": 1622,
      "ane": 1623,
      "aut": 1624,
      "Ġsocial": 1625,
      "Ġbro": 1626,
      "Ġsay": 1627,
      "ending": 1628,
      "Ġresearch": 1629,
      "pportun": 1630,
      "ĠCol": 1631,
      "ats": 1632,
      "ised": 1633,
      "Ġphys": 1634,
      "Ġschool": 1635,
      "left": 1636,
      "ĠTo": 1637,
      "eral": 1638,
      "St": 1639,
      "ember": 1640,
      "ned": 1641,
      "rap": 1642,
      "Ġtre": 1643,
      "ĠUniversity": 1644,
      "Ġlow": 1645,
      "Ġprob": 1646,
      "ean": 1647,
      "orld": 1648,
      "Ġmajor": 1649,
      "ĠIm": 1650,
      "Ġrelations": 1651,
      "ological": 1652,
      "lection": 1653,
      "Ġlight": 1654,
      "Ġcomb": 1655,
      "ills": 1656,
      "ression": 1657,
      "asing": 1658,
      "Ġnext": 1659,
      "ething": 1660,
      "Ġstep": 1661,
      "aging": 1662,
      "Ġprop": 1663,
      "aim": 1664,
      "Ġacross": 1665,
      "ox": 1666,
      "Ġfood": 1667,
      "Ġcharacter": 1668,
      "Ġlater": 1669,
      "Ġkey": 1670,
      "Ġ,": 1671,
      "Ġfre": 1672,
      "oph": 1673,
      "Ġtimes": 1674,
      "arent": 1675,
      "ither": 1676,
      "plic": 1677,
      "ably": 1678,
      "Ġhig": 1679,
      "verse": 1680,
      "Ġbenef": 1681,
      "Ġcosm": 1682,
      "Ġsal": 1683,
      "Ġcountry": 1684,
      "Ġinit": 1685,
      "Ġseem": 1686,
      "Ġearly": 1687,
      "Ġcrit": 1688,
      "Ġeconom": 1689,
      "Ġname": 1690,
      "Ġable": 1691,
      "Ġer": 1692,
      "aster": 1693,
      "Ġthings": 1694,
      "ilit": 1695,
      "Ġgovernment": 1696,
      "lement": 1697,
      "ĠCan": 1698,
      "ĠBl": 1699,
      "Ġunit": 1700,
      "Ġess": 1701,
      ",\"": 1702,
      "Ġhead": 1703,
      "vious": 1704,
      "erc": 1705,
      "idence": 1706,
      "uture": 1707,
      "ended": 1708,
      "Ġsystems": 1709,
      "Ġbelie": 1710,
      "ĠAf": 1711,
      "Ġprofess": 1712,
      "Ġenc": 1713,
      "18": 1714,
      "iate": 1715,
      "Ġevent": 1716,
      "Ġtru": 1717,
      "atch": 1718,
      "Ġmeans": 1719,
      "Ġmov": 1720,
      "ids": 1721,
      "ubl": 1722,
      "face": 1723,
      "ĠAll": 1724,
      "Ġrecord": 1725,
      "Ġperiod": 1726,
      "Ġcr": 1727,
      "ysis": 1728,
      "Ġdiscuss": 1729,
      "30": 1730,
      "ai": 1731,
      "Ġgoing": 1732,
      "Ġkeep": 1733,
      "Ġcontrib": 1734,
      "Ġstrong": 1735,
      "Ġenvironment": 1736,
      "Ġassoci": 1737,
      "ĠUnited": 1738,
      "Ġcome": 1739,
      "ogn": 1740,
      "ney": 1741,
      "Ġterm": 1742,
      "Ġnec": 1743,
      "Ġopportun": 1744,
      "Ġspecial": 1745,
      "Ġsomething": 1746,
      "by": 1747,
      "Ġold": 1748,
      "ument": 1749,
      "Ġpossible": 1750,
      "Ġmonth": 1751,
      "Ġnet": 1752,
      "ured": 1753,
      "Ġuntil": 1754,
      "Ġfore": 1755,
      "though": 1756,
      "Ġlittle": 1757,
      "omm": 1758,
      "ffic": 1759,
      "It": 1760,
      "fact": 1761,
      "ĠWhen": 1762,
      "ĠInt": 1763,
      "Ġsimilar": 1764,
      "11": 1765,
      "atural": 1766,
      "Ġ{": 1767,
      "Ġput": 1768,
      "Ġhard": 1769,
      "ected": 1770,
      "let": 1771,
      "\".": 1772,
      "An": 1773,
      "Ġnear": 1774,
      "Ġgame": 1775,
      "Ġreturn": 1776,
      "Ġproblem": 1777,
      "ER": 1778,
      "ols": 1779,
      "Ġpersonal": 1780,
      "Ġtry": 1781,
      "ource": 1782,
      "Ġcreate": 1783,
      "icle": 1784,
      "ĠChrist": 1785,
      "ger": 1786,
      "ww": 1787,
      "Ġcertain": 1788,
      "opedia": 1789,
      "ina": 1790,
      "Ġmot": 1791,
      "ival": 1792,
      "Ġrad": 1793,
      "Ġalways": 1794,
      "Ġfeel": 1795,
      "Ġestabl": 1796,
      "ides": 1797,
      "Ġvol": 1798,
      "Ġcond": 1799,
      "sp": 1800,
      "Ġareas": 1801,
      "utes": 1802,
      "Ġbecome": 1803,
      "Ġservices": 1804,
      "Ġrespons": 1805,
      ".âĢĿ": 1806,
      "Ġcomplex": 1807,
      "ours": 1808,
      "aper": 1809,
      "edu": 1810,
      "Ġphot": 1811,
      "Ġ11": 1812,
      "urs": 1813,
      "cul": 1814,
      "yl": 1815,
      "Ġann": 1816,
      "Ġsum": 1817,
      "Ġworking": 1818,
      "Ġdeterm": 1819,
      "Ġgive": 1820,
      "ĠEurop": 1821,
      "Ġfull": 1822,
      "Ġhy": 1823,
      "aps": 1824,
      "ĠWith": 1825,
      "Ġconcer": 1826,
      "ising": 1827,
      "Ġtoday": 1828,
      "ley": 1829,
      "Ġemploy": 1830,
      "Ġchildren": 1831,
      "duct": 1832,
      "rag": 1833,
      "Ġleft": 1834,
      "Ġdig": 1835,
      "ledge": 1836,
      "If": 1837,
      "roduction": 1838,
      ");": 1839,
      "Ġlarg": 1840,
      "Ġwhy": 1841,
      "Ġresults": 1842,
      "iple": 1843,
      "Ġair": 1844,
      "Ġcaus": 1845,
      "Ġwar": 1846,
      "ird": 1847,
      "//": 1848,
      "Ġlove": 1849,
      "Ġinflu": 1850,
      "side": 1851,
      "Ġonline": 1852,
      "Ġimpact": 1853,
      "oms": 1854,
      "ĠStates": 1855,
      "Ġfurther": 1856,
      "ipp": 1857,
      "Ġpay": 1858,
      "ables": 1859,
      "aces": 1860,
      "hers": 1861,
      "itle": 1862,
      "Ġ16": 1863,
      "ference": 1864,
      "Ġdistrib": 1865,
      "Ġcontinu": 1866,
      "ĠApp": 1867,
      "Ġdays": 1868,
      "Ġmaking": 1869,
      "Ġweek": 1870,
      "Ġpolic": 1871,
      "ication": 1872,
      "ĠCent": 1873,
      "min": 1874,
      "ĠCont": 1875,
      "ĠWhat": 1876,
      "omet": 1877,
      "Ġcosmopedia": 1878,
      "\",": 1879,
      "ĠBe": 1880,
      "raw": 1881,
      "Ġleast": 1882,
      "ĠUS": 1883,
      "Ġappear": 1884,
      "Ġvers": 1885,
      "Ġremain": 1886,
      "ample": 1887,
      "af": 1888,
      "rab": 1889,
      "ĠMan": 1890,
      "Ġmusic": 1891,
      "||": 1892,
      "Ġnever": 1893,
      "Ġgeneral": 1894,
      "be": 1895,
      "Ġexpect": 1896,
      "Ġproducts": 1897,
      "Ġworks": 1898,
      "Ġshort": 1899,
      "Ġrespect": 1900,
      "ĠComm": 1901,
      "âĢľ": 1902,
      "Ġabove": 1903,
      "Ġobserv": 1904,
      "not": 1905,
      "Ġbody": 1906,
      "Ġexist": 1907,
      "Ġothers": 1908,
      "Ġwin": 1909,
      "Ġspecific": 1910,
      "ners": 1911,
      "Ġactiv": 1912,
      "epend": 1913,
      "Ġdetail": 1914,
      "Ġaccount": 1915,
      "Ġpolit": 1916,
      "22": 1917,
      "pro": 1918,
      "Ġtechnology": 1919,
      "Ġturn": 1920,
      "thing": 1921,
      "Ġcoll": 1922,
      "Ġpast": 1923,
      "Ġhaving": 1924,
      "Ġfuture": 1925,
      "sw": 1926,
      "Ġgrowth": 1927,
      "Ġfri": 1928,
      "ym": 1929,
      "ourn": 1930,
      "Ġmaintain": 1931,
      "Ġlib": 1932,
      "Ġmillion": 1933,
      "ĠJoh": 1934,
      "iver": 1935,
      "Ġcompany": 1936,
      "Ġprim": 1937,
      "Ġstat": 1938,
      "Ġrole": 1939,
      "Ġunique": 1940,
      "Ġmar": 1941,
      "ctions": 1942,
      "Ġbeg": 1943,
      "Ġoffer": 1944,
      "aring": 1945,
      "Ġtoget": 1946,
      "ee": 1947,
      "ideo": 1948,
      "Ġtradition": 1949,
      "rm": 1950,
      "Ġ2012": 1951,
      "Ġtogether": 1952,
      "AT": 1953,
      "onst": 1954,
      "etic": 1955,
      "ush": 1956,
      "ĠRep": 1957,
      "Ġnecess": 1958,
      "gen": 1959,
      "Ġcompet": 1960,
      "Ġquality": 1961,
      "Ġcirc": 1962,
      "iences": 1963,
      "osp": 1964,
      "Ġsugg": 1965,
      "Ġsuggest": 1966,
      "Ġcommunity": 1967,
      "Ġfund": 1968,
      "Ġmass": 1969,
      "ask": 1970,
      "Ġservice": 1971,
      "Ġrequire": 1972,
      "Ġpoints": 1973,
      "Ã©": 1974,
      "clusion": 1975,
      "ĠAp": 1976,
      "Ġchalleng": 1977,
      "Ġcomplete": 1978,
      "Ġmembers": 1979,
      "self": 1980,
      "anced": 1981,
      "13": 1982,
      "rel": 1983,
      "ĠShe": 1984,
      "Ġsoft": 1985,
      "Ġemb": 1986,
      "obal": 1987,
      ",âĢĿ": 1988,
      "Ġfar": 1989,
      "ators": 1990,
      "AN": 1991,
      "ĠInst": 1992,
      "nces": 1993,
      "ude": 1994,
      "sh": 1995,
      "ĠAb": 1996,
      "Ġanim": 1997,
      "Ġsingle": 1998,
      "ones": 1999,
      "Ġregard": 2000,
      "Ġneeds": 2001,
      "AS": 2002,
      "acy": 2003,
      "14": 2004,
      "ae": 2005,
      "Ġsize": 2006,
      "Ġcity": 2007,
      "Ġaddress": 2008,
      "Ġlog": 2009,
      "lying": 2010,
      "200": 2011,
      "ander": 2012,
      "verage": 2013,
      "Ġwhether": 2014,
      "Ġneg": 2015,
      "Ġbig": 2016,
      "chie": 2017,
      "Ġask": 2018,
      "ĠOne": 2019,
      "Ġoffic": 2020,
      "Ġconditions": 2021,
      "ĠGen": 2022,
      "Ġlearning": 2023,
      "Ġ30": 2024,
      "Ġtravel": 2025,
      "Ġlanguage": 2026,
      "'re": 2027,
      "âĪ": 2028,
      "roll": 2029,
      "alf": 2030,
      "Ġtype": 2031,
      "Ġunderstanding": 2032,
      "Ġcentury": 2033,
      "Ġ...": 2034,
      "ctor": 2035,
      "Ġenh": 2036,
      "ification": 2037,
      "ĠSu": 2038,
      "ĠFr": 2039,
      "Ġtext": 2040,
      "Ġ}": 2041,
      "ĠTra": 2042,
      "Ġclear": 2043,
      "ey": 2044,
      "Ġpred": 2045,
      "Ġpopulation": 2046,
      "Ġdescrib": 2047,
      "Ġpercent": 2048,
      "Ġaway": 2049,
      "ĠIntern": 2050,
      "Ġdiff": 2051,
      "Ġrelationship": 2052,
      "ĠPr": 2053,
      "Ġ14": 2054,
      "###": 2055,
      "Ġbehav": 2056,
      "ĠGod": 2057,
      "mber": 2058,
      "Ġclose": 2059,
      "15": 2060,
      "rate": 2061,
      "rated": 2062,
      "aken": 2063,
      "Ġclaim": 2064,
      "inary": 2065,
      "nov": 2066,
      "set": 2067,
      "Ġthroughout": 2068,
      "Ġbit": 2069,
      "Ġconsum": 2070,
      "16": 2071,
      "het": 2072,
      "Ġself": 2073,
      "ĠÂ": 2074,
      "Ġnatural": 2075,
      "Al": 2076,
      "ĠAg": 2077,
      "une": 2078,
      "ott": 2079,
      "ĠMay": 2080,
      "ption": 2081,
      "atives": 2082,
      "Ġsure": 2083,
      "Ġbi": 2084,
      "vant": 2085,
      "Ġtowards": 2086,
      "ires": 2087,
      "Ġbelow": 2088,
      "Ġfilm": 2089,
      "iques": 2090,
      "Ġimprove": 2091,
      "Ġsat": 2092,
      "Ġeducation": 2093,
      "iation": 2094,
      "Ġla": 2095,
      "Ġissues": 2096,
      "Ġwebs": 2097,
      "idd": 2098,
      "Ġmodern": 2099,
      "Ġfail": 2100,
      "ows": 2101,
      "Ġauthor": 2102,
      "Ġessential": 2103,
      "Ġ:": 2104,
      "amb": 2105,
      "ties": 2106,
      "Ġcompon": 2107,
      "Ġtot": 2108,
      "ilt": 2109,
      "Ġsolution": 2110,
      "ĠEm": 2111,
      "25": 2112,
      "://": 2113,
      "Ġrange": 2114,
      "Ġperformance": 2115,
      "Ġsens": 2116,
      "Ġeither": 2117,
      "ĠMar": 2118,
      "hern": 2119,
      "ĠMed": 2120,
      "Ġcontain": 2121,
      "ĠStud": 2122,
      "Ġsite": 2123,
      "Ġconsist": 2124,
      "Ġdom": 2125,
      "Ġmeet": 2126,
      "istance": 2127,
      "ĠNational": 2128,
      "Ġenough": 2129,
      "Ġproduction": 2130,
      "atory": 2131,
      "Ġconcept": 2132,
      "ands": 2133,
      "Ġseries": 2134,
      "Ġthought": 2135,
      "elling": 2136,
      "fl": 2137,
      "Ġsw": 2138,
      "ĠBrit": 2139,
      "ĠComp": 2140,
      "Ġindustry": 2141,
      "Ġevents": 2142,
      "Ġnumbers": 2143,
      "ches": 2144,
      "Ġ/": 2145,
      "Ġage": 2146,
      "ĠEar": 2147,
      "ĠCar": 2148,
      "Ġhigher": 2149,
      "rict": 2150,
      "ery": 2151,
      "Ġcamp": 2152,
      "Ġhistory": 2153,
      "ecially": 2154,
      "Ġpubl": 2155,
      "ban": 2156,
      "Ġaspect": 2157,
      "lease": 2158,
      "Ġlot": 2159,
      "Ġlay": 2160,
      "Ġvalues": 2161,
      "Ġsays": 2162,
      "chan": 2163,
      "Ġindic": 2164,
      "Ġreview": 2165,
      "Ġpain": 2166,
      "17": 2167,
      "back": 2168,
      "Ġside": 2169,
      "aries": 2170,
      "Ġnorm": 2171,
      "rec": 2172,
      "Ġproperty": 2173,
      "ext": 2174,
      "rant": 2175,
      "Ġknowledge": 2176,
      "eed": 2177,
      "Ġdoc": 2178,
      "Ġmen": 2179,
      "Ġamount": 2180,
      "Ġquestion": 2181,
      "Ġmanagement": 2182,
      "Ġcollect": 2183,
      "For": 2184,
      "ume": 2185,
      "adem": 2186,
      "Ġhold": 2187,
      "ĠAss": 2188,
      "ĠWar": 2189,
      "ips": 2190,
      "Ġsound": 2191,
      "Ġterms": 2192,
      "Ġachie": 2193,
      "elves": 2194,
      "ift": 2195,
      "Ġ13": 2196,
      "Ġoverall": 2197,
      "imately": 2198,
      "Ġarg": 2199,
      "Ġpressure": 2200,
      "Ġeffic": 2201,
      "Ġ|": 2202,
      "leg": 2203,
      "Ġansw": 2204,
      "ĠLet": 2205,
      "Ġrate": 2206,
      "ength": 2207,
      "Ġapproach": 2208,
      "ison": 2209,
      "ĠWorld": 2210,
      "Ġtemper": 2211,
      "ĠFl": 2212,
      "Ġprinc": 2213,
      "ES": 2214,
      "Ġaud": 2215,
      "Ġimplement": 2216,
      "icult": 2217,
      "omes": 2218,
      "Ġhowever": 2219,
      "Ġmakes": 2220,
      "ĠNo": 2221,
      "ler": 2222,
      "Ġbecame": 2223,
      "Ġelements": 2224,
      "ĠCons": 2225,
      "Ġcheck": 2226,
      "Ġparticip": 2227,
      "ises": 2228,
      "ĠCal": 2229,
      "ump": 2230,
      "ĠThat": 2231,
      "ĠMus": 2232,
      "oman": 2233,
      "ulations": 2234,
      "ollo": 2235,
      "$.": 2236,
      "most": 2237,
      "uation": 2238,
      "Ġwomen": 2239,
      "Ġwr": 2240,
      "part": 2241,
      "ror": 2242,
      "sequ": 2243,
      "avor": 2244,
      "Ġtraining": 2245,
      "especially": 2246,
      "80": 2247,
      "Ġstates": 2248,
      "aced": 2249,
      "Ġmom": 2250,
      "Ġrecogn": 2251,
      "ready": 2252,
      "illed": 2253,
      "action": 2254,
      "Ġarr": 2255,
      "Ġfeatures": 2256,
      "ufact": 2257,
      "Ġsoci": 2258,
      "Ġrather": 2259,
      "Ġstandard": 2260,
      "ĠâĢĺ": 2261,
      "wh": 2262,
      "Ġgot": 2263,
      "rect": 2264,
      "cial": 2265,
      "istics": 2266,
      "Ġanalysis": 2267,
      "Ġmath": 2268,
      "Ġlive": 2269,
      "ĠCo": 2270,
      "Ġrelated": 2271,
      "Ġassociated": 2272,
      "Ġfive": 2273,
      "Ġsurface": 2274,
      "atform": 2275,
      "Ġoil": 2276,
      "ĠNorth": 2277,
      "oney": 2278,
      "Ġbr": 2279,
      "Ġselect": 2280,
      "ruction": 2281,
      "Ġmedia": 2282,
      "Ġoffers": 2283,
      "enn": 2284,
      "Ġjob": 2285,
      "Ġpopular": 2286,
      "Ġchanges": 2287,
      "Ġdise": 2288,
      "ĠAng": 2289,
      "urity": 2290,
      "ung": 2291,
      "Ġill": 2292,
      "ops": 2293,
      "Ġprevious": 2294,
      "Ġseason": 2295,
      "hib": 2296,
      "ensive": 2297,
      "Ġpriv": 2298,
      "Ġpositive": 2299,
      "40": 2300,
      "To": 2301,
      "Ġusually": 2302,
      "Ġ<": 2303,
      "Ġvideo": 2304,
      "ĠAlex": 2305,
      "Ġcontent": 2306,
      "Ġprovided": 2307,
      "Ġcomputer": 2308,
      "Ġsuper": 2309,
      "cle": 2310,
      "Ġlower": 2311,
      "Ġaccording": 2312,
      "Ex": 2313,
      "ule": 2314,
      "}}": 2315,
      "ene": 2316,
      "Ġ100": 2317,
      "Ġsubst": 2318,
      "Ġfr": 2319,
      "Ġmind": 2320,
      "Ġdone": 2321,
      "Ġstory": 2322,
      "Ġyoung": 2323,
      "Ġalready": 2324,
      "idered": 2325,
      "ĠWhile": 2326,
      "Ġlooking": 2327,
      "ding": 2328,
      "ilos": 2329,
      "fully": 2330,
      "Ġpack": 2331,
      "ĠSome": 2332,
      "time": 2333,
      "ishing": 2334,
      "Ġprovides": 2335,
      "Ġcode": 2336,
      "earch": 2337,
      "Ġmultiple": 2338,
      "Ġge": 2339,
      "IN": 2340,
      "Ġver": 2341,
      "rams": 2342,
      "ites": 2343,
      "Ġreason": 2344,
      "Ġnational": 2345,
      "Ġkind": 2346,
      "ĠĊĠĊ": 2347,
      "Ġinternational": 2348,
      "Ġcomes": 2349,
      "Ġcontact": 2350,
      "Ġespecially": 2351,
      "itch": 2352,
      "Ġever": 2353,
      "ĠAust": 2354,
      "Ġfamil": 2355,
      "eter": 2356,
      "Ġonce": 2357,
      "ams": 2358,
      "Ġseen": 2359,
      "Ġetc": 2360,
      "ĠMore": 2361,
      "rior": 2362,
      "ĠQu": 2363,
      "Ġfrequ": 2364,
      "Ch": 2365,
      "ately": 2366,
      "Ġposition": 2367,
      "fect": 2368,
      "ony": 2369,
      "Ġbase": 2370,
      "iles": 2371,
      "Ġpers": 2372,
      "Ġyet": 2373,
      "Ġ25": 2374,
      "Ġproblems": 2375,
      "ĠJohn": 2376,
      "esc": 2377,
      "Ġresources": 2378,
      "att": 2379,
      "Ġfit": 2380,
      "(\\": 2381,
      "Ġ>": 2382,
      "Ġregion": 2383,
      "Ġincrease": 2384,
      "Ġquestions": 2385,
      "Ġsepar": 2386,
      "augh": 2387,
      "Ġtotal": 2388,
      "gor": 2389,
      "Ġdoing": 2390,
      "ched": 2391,
      "Ġhouse": 2392,
      "eal": 2393,
      "Ġmor": 2394,
      "Ġimm": 2395,
      "Ġscient": 2396,
      "Ġcommit": 2397,
      "Ġdeath": 2398,
      "Ġwords": 2399,
      "Ġrequired": 2400,
      "Ġdeep": 2401,
      "Ġconsidered": 2402,
      "AR": 2403,
      "Ġtypes": 2404,
      "ober": 2405,
      "Ġfall": 2406,
      "ĠAfter": 2407,
      "Ġupon": 2408,
      "Ġmethods": 2409,
      "Ġut": 2410,
      "ĠSy": 2411,
      "Ġcompan": 2412,
      "Ġabs": 2413,
      "Ġprevent": 2414,
      "ĠArt": 2415,
      "Ġlevels": 2416,
      "Ġrisk": 2417,
      "sy": 2418,
      "eds": 2419,
      "Ġindepend": 2420,
      "Ġgroups": 2421,
      "ev": 2422,
      "Ġbuilding": 2423,
      "Ġmeasure": 2424,
      "lish": 2425,
      "Ġcop": 2426,
      "Ġactivities": 2427,
      "Ġdeg": 2428,
      "Ġsqu": 2429,
      "Ġprec": 2430,
      "ancial": 2431,
      "atter": 2432,
      "Ġlo": 2433,
      "21": 2434,
      "irm": 2435,
      "Ġsimple": 2436,
      "Ġconnect": 2437,
      "Ġport": 2438,
      "Ġopp": 2439,
      "Ġwide": 2440,
      "ĠAc": 2441,
      "Ġgain": 2442,
      "Ġoriginal": 2443,
      "olic": 2444,
      "Ġuser": 2445,
      "ĠAfric": 2446,
      "Ġbegin": 2447,
      "joy": 2448,
      "ĠApollo": 2449,
      "Ġglobal": 2450,
      "Ġwind": 2451,
      "arr": 2452,
      "Ġder": 2453,
      "Ġtax": 2454,
      "Ġcru": 2455,
      "=\\": 2456,
      "org": 2457,
      "Ġshare": 2458,
      "ĠâĢĶ": 2459,
      "Ġtechniques": 2460,
      "standing": 2461,
      "Ġengine": 2462,
      "ze": 2463,
      "onse": 2464,
      "imum": 2465,
      "Ġ2013": 2466,
      "Ġwa": 2467,
      "empt": 2468,
      "Ġquick": 2469,
      "60": 2470,
      "erous": 2471,
      "mediate": 2472,
      "co": 2473,
      "like": 2474,
      "Ġmax": 2475,
      "Ġtheory": 2476,
      "icles": 2477,
      "Ġfinal": 2478,
      "izations": 2479,
      "Ġcells": 2480,
      "):": 2481,
      "Ġhours": 2482,
      "Ġincreasing": 2483,
      "Ġdifficult": 2484,
      "fort": 2485,
      "Ġrecent": 2486,
      "Ġindividuals": 2487,
      "bon": 2488,
      "based": 2489,
      "Ġpaper": 2490,
      "Ġlearn": 2491,
      "Ġtraditional": 2492,
      "Ġcame": 2493,
      "Ġphysical": 2494,
      "Ġloss": 2495,
      "There": 2496,
      "Ġcountries": 2497,
      "icro": 2498,
      "Ġthing": 2499,
      "Ġeasy": 2500,
      "uck": 2501,
      "Ġcases": 2502,
      "Ġhistor": 2503,
      "Ġallows": 2504,
      "Ġbal": 2505,
      "aves": 2506,
      "igure": 2507,
      "Ġregular": 2508,
      "oon": 2509,
      "ters": 2510,
      "Ġinnov": 2511,
      "Ġhalf": 2512,
      "Ġincreased": 2513,
      "aged": 2514,
      "Ġ--": 2515,
      "Ġclean": 2516,
      "Ġlegal": 2517,
      "23": 2518,
      "You": 2519,
      "Ġtreatment": 2520,
      "Ġey": 2521,
      "Ġtrue": 2522,
      "Ġoccur": 2523,
      "Ġcut": 2524,
      "isions": 2525,
      "ĠSch": 2526,
      "ancing": 2527,
      "Ġopportunities": 2528,
      "Ġfost": 2529,
      "ĠArab": 2530,
      "Ġvisit": 2531,
      "Ġnetwork": 2532,
      "Ġce": 2533,
      "Ġpractice": 2534,
      "Ġways": 2535,
      "Ġ197": 2536,
      "Ġspecies": 2537,
      "Ġpractices": 2538,
      "bo": 2539,
      "osing": 2540,
      "bit": 2541,
      "go": 2542,
      "ences": 2543,
      "Ġrout": 2544,
      "Ġplatform": 2545,
      "Ġexperim": 2546,
      "Ġskills": 2547,
      "Ġensure": 2548,
      "Ġentire": 2549,
      "aches": 2550,
      "ĠYork": 2551,
      "oor": 2552,
      "Ġbound": 2553,
      "Ġsearch": 2554,
      "Ġproviding": 2555,
      "ifying": 2556,
      "Ġstrategies": 2557,
      "ĠGu": 2558,
      "arget": 2559,
      "Ġdemonst": 2560,
      "Ġheart": 2561,
      "ferences": 2562,
      "Ġparent": 2563,
      "ĠGe": 2564,
      "overed": 2565,
      "Ġrights": 2566,
      "ĠUnder": 2567,
      "Ġwhole": 2568,
      "Ġlikely": 2569,
      "hens": 2570,
      "orpor": 2571,
      "ĠReg": 2572,
      "Ġdigital": 2573,
      ".)": 2574,
      "Ġsix": 2575,
      "Ġtook": 2576,
      "ĠPer": 2577,
      "Ġsubject": 2578,
      "ball": 2579,
      "________": 2580,
      "my": 2581,
      "rix": 2582,
      "Ġemp": 2583,
      "Ġoptions": 2584,
      "Ġstructure": 2585,
      "Ġstay": 2586,
      "ĠHis": 2587,
      "Ġwebsite": 2588,
      "ĠAct": 2589,
      "Ġcannot": 2590,
      "Ġtaken": 2591,
      "align": 2592,
      "anks": 2593,
      "usb": 2594,
      "Ġeffective": 2595,
      "Ġautom": 2596,
      "Ġred": 2597,
      "ĠSouth": 2598,
      "Ġdistribution": 2599,
      "Ġpolitical": 2600,
      "Ġvia": 2601,
      "Ġblack": 2602,
      "Ġdiv": 2603,
      "ĠGerm": 2604,
      "Ġmechan": 2605,
      "Ġevidence": 2606,
      "equ": 2607,
      "cell": 2608,
      "$,": 2609,
      "Ġrecomm": 2610,
      "more": 2611,
      "Ġliving": 2612,
      "ules": 2613,
      "Ġmanufact": 2614,
      "rad": 2615,
      "Ġstudies": 2616,
      "Ġleading": 2617,
      "ground": 2618,
      "ourse": 2619,
      "Ġreflect": 2620,
      "Ġchem": 2621,
      "aly": 2622,
      "Ġnature": 2623,
      "Ġcou": 2624,
      "itution": 2625,
      "rench": 2626,
      "Ġsoftware": 2627,
      "reme": 2628,
      "Ġbir": 2629,
      "arily": 2630,
      "irt": 2631,
      "Ġgas": 2632,
      "ĠMin": 2633,
      "osition": 2634,
      "43": 2635,
      "ister": 2636,
      "Ġactually": 2637,
      "Ġfactors": 2638,
      "gorith": 2639,
      "book": 2640,
      "yond": 2641,
      "29": 2642,
      "light": 2643,
      "Ġaim": 2644,
      "Ġchallenges": 2645,
      "ON": 2646,
      "hemat": 2647,
      "Ġmess": 2648,
      "ided": 2649,
      "Ġadapt": 2650,
      "Ġdecision": 2651,
      "ply": 2652,
      "amed": 2653,
      "eration": 2654,
      "ivil": 2655,
      "Ġestim": 2656,
      "Ġstreng": 2657,
      "Ġidea": 2658,
      "ĠApr": 2659,
      "ama": 2660,
      "ĠGree": 2661,
      "Ġaccept": 2662,
      "iction": 2663,
      "Ġcause": 2664,
      "Ġdam": 2665,
      "Ġdest": 2666,
      "unch": 2667,
      "Ġintrodu": 2668,
      "Ġdefin": 2669,
      "Ġmedical": 2670,
      "Ġhyd": 2671,
      "aff": 2672,
      "Ġtalk": 2673,
      "uted": 2674,
      "Ġbrand": 2675,
      "ournal": 2676,
      "When": 2677,
      "ĠMy": 2678,
      "ĠGo": 2679,
      "IS": 2680,
      "Ġpath": 2681,
      "Ġground": 2682,
      "Ġrev": 2683,
      "ĠRec": 2684,
      "Ġfunctions": 2685,
      "Ġpattern": 2686,
      "Ġparts": 2687,
      "Ġsafety": 2688,
      "ccording": 2689,
      "Ġitself": 2690,
      "Ġanaly": 2691,
      "ĠCanad": 2692,
      "lege": 2693,
      "Ġenjoy": 2694,
      "Ġbuy": 2695,
      "hood": 2696,
      "Ġsent": 2697,
      "Ġblood": 2698,
      "OR": 2699,
      "estern": 2700,
      "Ġcustomer": 2701,
      "What": 2702,
      "Ġcalcul": 2703,
      "Ġdesigned": 2704,
      "Ġstarted": 2705,
      "rand": 2706,
      "Ġword": 2707,
      "ĠPart": 2708,
      "Ġcolor": 2709,
      "ĠBritish": 2710,
      "hold": 2711,
      "itute": 2712,
      "Ġheav": 2713,
      "Ġmonths": 2714,
      "Ġrepl": 2715,
      "Ġspect": 2716,
      "ynam": 2717,
      "Ġbroad": 2718,
      "know": 2719,
      "Ġthird": 2720,
      "Ġincludes": 2721,
      "resp": 2722,
      "ems": 2723,
      "35": 2724,
      "ament": 2725,
      "ĠPre": 2726,
      "Ġinvolved": 2727,
      "ä¸": 2728,
      "ifold": 2729,
      "ĠAmerica": 2730,
      "Ġinstead": 2731,
      "Ġmeaning": 2732,
      "Ġapplication": 2733,
      "bl": 2734,
      "su": 2735,
      "Ġconduct": 2736,
      "mselves": 2737,
      "Ġflow": 2738,
      "ĠEnglish": 2739,
      "Ġcompanies": 2740,
      "'m": 2741,
      "li": 2742,
      "ales": 2743,
      "Ġ50": 2744,
      "Ġeffects": 2745,
      "Ġpurp": 2746,
      "ĠOct": 2747,
      "Ġnecessary": 2748,
      "Ġdeal": 2749,
      "mathb": 2750,
      "IV": 2751,
      "Ġwon": 2752,
      "Ġobtain": 2753,
      "Ġaction": 2754,
      "Ġthemselves": 2755,
      "Ġhost": 2756,
      "Ġsym": 2757,
      "itor": 2758,
      "Ġfram": 2759,
      "Ġmoney": 2760,
      "ĠPres": 2761,
      "Ġdeb": 2762,
      "Ġrelative": 2763,
      "Ġmarketing": 2764,
      "Ġflu": 2765,
      "Ġbenefits": 2766,
      "king": 2767,
      "Ġsolutions": 2768,
      "Ġlanguages": 2769,
      "24": 2770,
      "Ġsense": 2771,
      "anes": 2772,
      "Ġpromot": 2773,
      "ription": 2774,
      "rew": 2775,
      "Ġtools": 2776,
      "Ġste": 2777,
      "Ġupd": 2778,
      "imens": 2779,
      "iet": 2780,
      "lim": 2781,
      "Ġbeaut": 2782,
      "ried": 2783,
      "egin": 2784,
      "opp": 2785,
      "Ġdeveloped": 2786,
      "How": 2787,
      "Ġast": 2788,
      "umb": 2789,
      "Ġ24": 2790,
      "Ġcondition": 2791,
      "Ġplant": 2792,
      "Ġcreated": 2793,
      "ography": 2794,
      "Ġadditional": 2795,
      "ĠUs": 2796,
      "aving": 2797,
      "ĠDevelop": 2798,
      "ores": 2799,
      "zer": 2800,
      "Ġalmost": 2801,
      "ĠJan": 2802,
      "Ġdisplay": 2803,
      "Ġq": 2804,
      "Ġforce": 2805,
      "Ġang": 2806,
      "ector": 2807,
      "Ġsequ": 2808,
      "Ġcourt": 2809,
      "ky": 2810,
      "ming": 2811,
      "orks": 2812,
      "rug": 2813,
      "Ġresponse": 2814,
      "Ġeconomic": 2815,
      "load": 2816,
      "Ġcapt": 2817,
      "Ġexc": 2818,
      "Ġadded": 2819,
      "'ll": 2820,
      "Ġperfect": 2821,
      "Ġbuilt": 2822,
      "Ġdoesn": 2823,
      "Ġlink": 2824,
      "ĠHealth": 2825,
      "Ġencou": 2826,
      "27": 2827,
      "enc": 2828,
      "Ġcoun": 2829,
      "Ġgraph": 2830,
      "Ġprograms": 2831,
      "ĠTechn": 2832,
      "'ve": 2833,
      "hing": 2834,
      "urg": 2835,
      "OM": 2836,
      "reg": 2837,
      "ream": 2838,
      "iring": 2839,
      "ĠNot": 2840,
      "Ġarch": 2841,
      "Ġacid": 2842,
      "ulf": 2843,
      "aching": 2844,
      "rary": 2845,
      "Ġaverage": 2846,
      "Ġcontract": 2847,
      "ĠState": 2848,
      "Ġfeed": 2849,
      "Ġproperties": 2850,
      "Ġhappen": 2851,
      "Con": 2852,
      "Ġeth": 2853,
      "Ġshown": 2854,
      "Ġfinancial": 2855,
      "rt": 2856,
      "Ġtw": 2857,
      "Ġfile": 2858,
      "Ġfoot": 2859,
      "ously": 2860,
      "Ġmaterials": 2861,
      "Ġmagn": 2862,
      "Ġnight": 2863,
      "Ġcreating": 2864,
      "Ġbreak": 2865,
      "itude": 2866,
      "omp": 2867,
      "Ġforms": 2868,
      "Ġbehind": 2869,
      "On": 2870,
      "Ġemerg": 2871,
      "Ġmodels": 2872,
      "Ġshows": 2873,
      "ĠEarth": 2874,
      "Ġtell": 2875,
      "ino": 2876,
      "ĠDo": 2877,
      "ĠInternational": 2878,
      "Ġsource": 2879,
      "Ġgames": 2880,
      "inks": 2881,
      "Ġliter": 2882,
      "iples": 2883,
      "Ġhot": 2884,
      "Ġsets": 2885,
      "Ġapplications": 2886,
      "Ġtaking": 2887,
      "Ġcontinue": 2888,
      "wise": 2889,
      "Ġcollabor": 2890,
      "Ġdisease": 2891,
      "ault": 2892,
      "Ġinform": 2893,
      "Ġhtt": 2894,
      "Ġbeyond": 2895,
      "ĠMe": 2896,
      "Ġusers": 2897,
      "Ġ198": 2898,
      "Ġdirectly": 2899,
      "rast": 2900,
      "Ġcompared": 2901,
      "rown": 2902,
      "NA": 2903,
      "Ġpage": 2904,
      "Ġled": 2905,
      "Ġaltern": 2906,
      "Ġwritten": 2907,
      "Ġversion": 2908,
      "Ġanswer": 2909,
      "arc": 2910,
      "Ġdou": 2911,
      "aign": 2912,
      "dd": 2913,
      "izes": 2914,
      "Ġroom": 2915,
      "ologies": 2916,
      "ius": 2917,
      "Ġcred": 2918,
      "stain": 2919,
      "Ġweight": 2920,
      "Ġofficial": 2921,
      "Ġcrucial": 2922,
      "Ġbring": 2923,
      "ĠSec": 2924,
      "Ġtransfer": 2925,
      "Ġprotect": 2926,
      "Ġprior": 2927,
      "ĠWill": 2928,
      "....": 2929,
      "Ġsuccessful": 2930,
      "Ġpolicy": 2931,
      "leb": 2932,
      "ender": 2933,
      "met": 2934,
      "na": 2935,
      "amples": 2936,
      "obile": 2937,
      "Ġactivity": 2938,
      "Ġminutes": 2939,
      "Ġapprox": 2940,
      "Ġregarding": 2941,
      "son": 2942,
      "Ġdraw": 2943,
      "asc": 2944,
      "ĠMark": 2945,
      "Ġalgorith": 2946,
      "Ġcomponents": 2947,
      "Ġlab": 2948,
      "ĠPar": 2949,
      "Ġoutside": 2950,
      "Ġagree": 2951,
      "Ġexplore": 2952,
      "Ġculture": 2953,
      "rain": 2954,
      "ĠDr": 2955,
      "Ġinteract": 2956,
      "Ġcross": 2957,
      "Ġwent": 2958,
      "urch": 2959,
      "Ġeval": 2960,
      "Ġneeded": 2961,
      "Ġpublished": 2962,
      "!!": 2963,
      "Ġcy": 2964,
      "Ġtrack": 2965,
      "rig": 2966,
      "ĠAlexander": 2967,
      "ĠTrans": 2968,
      "Ġbegan": 2969,
      "ached": 2970,
      "Ġsimply": 2971,
      "ĠAug": 2972,
      "Ġsurround": 2973,
      "Ġparam": 2974,
      "avig": 2975,
      "Ġroad": 2976,
      "}^{": 2977,
      "Ġphilos": 2978,
      "ixed": 2979,
      "Ġmilit": 2980,
      "Ġarticle": 2981,
      "ĠAtl": 2982,
      "raction": 2983,
      "Ġsustain": 2984,
      "Ġjo": 2985,
      "Ġexpress": 2986,
      "Ġearl": 2987,
      "Ġsomet": 2988,
      "ĠMod": 2989,
      "Ġtele": 2990,
      "frak": 2991,
      "mathfrak": 2992,
      "33": 2993,
      "new": 2994,
      "ĠRuss": 2995,
      "Ġund": 2996,
      "Ġveh": 2997,
      "Ġestablished": 2998,
      "Ġtour": 2999,
      "Ġden": 3000,
      "Ġlength": 3001,
      "ĠJu": 3002,
      "Pro": 3003,
      "uel": 3004,
      "Ġface": 3005,
      "Ġbar": 3006,
      "Ġmole": 3007,
      "Ġanc": 3008,
      "Ġheld": 3009,
      "Ġorigin": 3010,
      "itation": 3011,
      "oses": 3012,
      "ĠOver": 3013,
      "Ġtarget": 3014,
      "ste": 3015,
      "Ġgr": 3016,
      "Ġwhite": 3017,
      "Ġrefer": 3018,
      "Ġconstant": 3019,
      "28": 3020,
      "ĠFrom": 3021,
      "Ġcommunication": 3022,
      "Ġwriting": 3023,
      "ĠHigh": 3024,
      "Ġfavor": 3025,
      "ĠFrench": 3026,
      "Ġequal": 3027,
      "Ġlargest": 3028,
      "26": 3029,
      "uary": 3030,
      "Ġcat": 3031,
      "ropri": 3032,
      "Ġattempt": 3033,
      "Ġdocument": 3034,
      "Ġmatter": 3035,
      "mon": 3036,
      "vert": 3037,
      "Ġgreater": 3038,
      "Ġtable": 3039,
      "Ġmach": 3040,
      "Ġincluded": 3041,
      "Ġrequires": 3042,
      "Ġprofessional": 3043,
      "istry": 3044,
      "Ġ21": 3045,
      "Ġappl": 3046,
      "Ġability": 3047,
      "ipment": 3048,
      "where": 3049,
      "iff": 3050,
      "Ġimage": 3051,
      "ĠVal": 3052,
      "Ġfeature": 3053,
      "Ġefforts": 3054,
      "Ġtemperature": 3055,
      "Ġlate": 3056,
      "ĠServ": 3057,
      "Ġquant": 3058,
      "Ġcorrect": 3059,
      "Ġgetting": 3060,
      "Ġcultural": 3061,
      "Ġaffect": 3062,
      "Ġreceived": 3063,
      "ura": 3064,
      "head": 3065,
      "Ġcard": 3066,
      "ĠPe": 3067,
      "Ġrelig": 3068,
      "Ġinstance": 3069,
      "ĠEurope": 3070,
      "Ġmoment": 3071,
      "arrow": 3072,
      "Ġhon": 3073,
      "astic": 3074,
      "rought": 3075,
      "ĠUnit": 3076,
      "Ġattention": 3077,
      "Title": 3078,
      "cast": 3079,
      "Ġexcept": 3080,
      "Ġ2010": 3081,
      "Ġtransport": 3082,
      "Ġchoice": 3083,
      "IT": 3084,
      "Ġavoid": 3085,
      "Ġparticularly": 3086,
      "ED": 3087,
      "cks": 3088,
      "ĠDef": 3089,
      "OS": 3090,
      "inct": 3091,
      "Ġball": 3092,
      "Ġattack": 3093,
      "Ġskin": 3094,
      "iency": 3095,
      "ership": 3096,
      "term": 3097,
      "uk": 3098,
      "ula": 3099,
      "ades": 3100,
      "Ġago": 3101,
      "ashing": 3102,
      "Ġanimals": 3103,
      "Ġ#": 3104,
      "Ġsometimes": 3105,
      "begin": 3106,
      "stract": 3107,
      "ĠSim": 3108,
      "Ġones": 3109,
      "Ġclimate": 3110,
      "ĠSw": 3111,
      "abilities": 3112,
      "Ġ40": 3113,
      "Ġcook": 3114,
      "Ġdidn": 3115,
      "Ġcustomers": 3116,
      "Ġsignificantly": 3117,
      "Ġlines": 3118,
      "ully": 3119,
      "ara": 3120,
      "Ġassess": 3121,
      "lands": 3122,
      "Ġcritical": 3123,
      "year": 3124,
      "--------": 3125,
      "respond": 3126,
      "Ġmiss": 3127,
      "Ġuses": 3128,
      "duc": 3129,
      "Cl": 3130,
      "ged": 3131,
      "Ġalthough": 3132,
      "river": 3133,
      "Ġadop": 3134,
      "Ġplayers": 3135,
      "Ġguid": 3136,
      "minist": 3137,
      "erve": 3138,
      "Ġprocesses": 3139,
      "Ġ)": 3140,
      "Ġaspects": 3141,
      "EN": 3142,
      "ging": 3143,
      "ĠNet": 3144,
      "Ġinstall": 3145,
      "Ġmention": 3146,
      "elt": 3147,
      "Ġ196": 3148,
      "ĠEuropean": 3149,
      "dom": 3150,
      "rim": 3151,
      "ĠInter": 3152,
      "Ġadvant": 3153,
      "ĠSm": 3154,
      "Ġstyle": 3155,
      "ĠEd": 3156,
      "aily": 3157,
      "Ġlocated": 3158,
      "rating": 3159,
      "ux": 3160,
      "Ġtakes": 3161,
      "osis": 3162,
      "Ġlocation": 3163,
      "Ġideas": 3164,
      "But": 3165,
      "So": 3166,
      "Ġult": 3167,
      "Ġdisp": 3168,
      "iece": 3169,
      "ype": 3170,
      "Ġinvestig": 3171,
      "uff": 3172,
      "Ġpict": 3173,
      "Ġinterp": 3174,
      "Ġremains": 3175,
      "Ġinsp": 3176,
      "Ġvisual": 3177,
      "ID": 3178,
      "esign": 3179,
      "Ġprice": 3180,
      "Ġsources": 3181,
      "ĠHist": 3182,
      "ĠJune": 3183,
      "Ġproduced": 3184,
      "Ġdetails": 3185,
      "IC": 3186,
      "mission": 3187,
      "hest": 3188,
      "use": 3189,
      "ĠGl": 3190,
      "Ġelse": 3191,
      "AL": 3192,
      "ĠÃ": 3193,
      "olar": 3194,
      "AM": 3195,
      "Ġdecl": 3196,
      "Ġsection": 3197,
      "ĠPat": 3198,
      "Ġscreen": 3199,
      "Ġspeak": 3200,
      "ĠCenter": 3201,
      "sec": 3202,
      "Ġ23": 3203,
      "Ġcommunities": 3204,
      "porary": 3205,
      "Ġreduce": 3206,
      "And": 3207,
      "urance": 3208,
      "illing": 3209,
      "Ġseems": 3210,
      "Ġthus": 3211,
      "Ġlarger": 3212,
      ")(": 3213,
      "come": 3214,
      "osure": 3215,
      "Ġ2011": 3216,
      "Ġviol": 3217,
      "Ġfriends": 3218,
      "Ġfront": 3219,
      "AC": 3220,
      "Ġhelps": 3221,
      "Ġissue": 3222,
      "Ġprobably": 3223,
      "45": 3224,
      "Int": 3225,
      "Ġinj": 3226,
      "ceed": 3227,
      "Ġord": 3228,
      "Ġsomeone": 3229,
      "oved": 3230,
      "Ġemot": 3231,
      "ĠSchool": 3232,
      "ĠOur": 3233,
      "Ġimmediate": 3234,
      "Ġprep": 3235,
      "Ġnews": 3236,
      "Ġhor": 3237,
      "Ġweb": 3238,
      "Ġequation": 3239,
      "Ġsecurity": 3240,
      "Ġcentral": 3241,
      "Ġpric": 3242,
      "ĠAut": 3243,
      "ĠEl": 3244,
      "Ġ2009": 3245,
      "Ġorganizations": 3246,
      "ĠApril": 3247,
      "ä»": 3248,
      "Ġvariety": 3249,
      "Ġfamilies": 3250,
      "99": 3251,
      "ares": 3252,
      "Ġwalk": 3253,
      "ĠPark": 3254,
      "Ġpurch": 3255,
      "Ġreported": 3256,
      "Ġinfluence": 3257,
      "pid": 3258,
      "artment": 3259,
      "Ġadj": 3260,
      "Ġsymb": 3261,
      "Ġlonger": 3262,
      "Ġexplain": 3263,
      "Ġnegative": 3264,
      "$\\": 3265,
      "oln": 3266,
      "Ġrates": 3267,
      "alt": 3268,
      "ricult": 3269,
      "Ġrob": 3270,
      "Ġrand": 3271,
      "Ġtrend": 3272,
      "sych": 3273,
      "Ġsun": 3274,
      "Ġincorpor": 3275,
      "Ġexperiences": 3276,
      "Ġbusinesses": 3277,
      "))": 3278,
      "Man": 3279,
      "room": 3280,
      "Ġgives": 3281,
      "ĠChar": 3282,
      "Ġproduce": 3283,
      "Ġbehavior": 3284,
      "ero": 3285,
      "Ġdynam": 3286,
      "omy": 3287,
      "Ġexec": 3288,
      "Ġheat": 3289,
      "airs": 3290,
      "Ġfast": 3291,
      "vey": 3292,
      "Ġelement": 3293,
      "Ġlimited": 3294,
      "Ġtrying": 3295,
      "bi": 3296,
      "Ġtail": 3297,
      "Ġscience": 3298,
      "sq": 3299,
      "ued": 3300,
      "ĠJap": 3301,
      "rs": 3302,
      "Ġlif": 3303,
      "ĠCount": 3304,
      "Ġstri": 3305,
      "Ġtrade": 3306,
      "Ġbecomes": 3307,
      "Ġbond": 3308,
      "amer": 3309,
      "ifically": 3310,
      "angle": 3311,
      "Ġmatrix": 3312,
      "Ġrandom": 3313,
      "wide": 3314,
      "rote": 3315,
      "Ġexact": 3316,
      "100": 3317,
      "atur": 3318,
      "irit": 3319,
      "Ġensuring": 3320,
      "Ġforward": 3321,
      "Ġnumerous": 3322,
      "Ġpatients": 3323,
      "ĊĊ": 3324,
      "attle": 3325,
      "ĠChristian": 3326,
      "iddle": 3327,
      "At": 3328,
      "Ġgreen": 3329,
      "otic": 3330,
      "pper": 3331,
      "order": 3332,
      "Ġqual": 3333,
      "Ġinside": 3334,
      "Ġdevice": 3335,
      "Ġprimary": 3336,
      "irl": 3337,
      "Ġcover": 3338,
      "fficient": 3339,
      "lear": 3340,
      "ĠDep": 3341,
      "Ġsafe": 3342,
      "Ġdescribed": 3343,
      "cean": 3344,
      "Ġcosts": 3345,
      "care": 3346,
      "uments": 3347,
      "}$$": 3348,
      "rage": 3349,
      "ĠMon": 3350,
      "ief": 3351,
      "Ġdifference": 3352,
      "Ġbelieve": 3353,
      "Ġbur": 3354,
      "antic": 3355,
      "Ġelectron": 3356,
      "Ġsteps": 3357,
      "cos": 3358,
      "Ġâ": 3359,
      "Ġsle": 3360,
      "Ġop": 3361,
      "Ġreve": 3362,
      "Ġrot": 3363,
      "Ġachieve": 3364,
      "Ġhydro": 3365,
      "iter": 3366,
      "Ġjud": 3367,
      "Ġcorrespond": 3368,
      "Ġdemand": 3369,
      "ĠCommun": 3370,
      "Ġceleb": 3371,
      "ges": 3372,
      "Ġcharg": 3373,
      "Ġemail": 3374,
      "Ġ2016": 3375,
      "Ġdiverse": 3376,
      "Course": 3377,
      "Now": 3378,
      "Ġsample": 3379,
      "ille": 3380,
      "ternal": 3381,
      "lam": 3382,
      "Ġsil": 3383,
      "ĠFeb": 3384,
      "Ġapprec": 3385,
      "Ġprogress": 3386,
      "Ġcapital": 3387,
      "Ġdevices": 3388,
      "aur": 3389,
      "Ġinput": 3390,
      "Ġcontains": 3391,
      "ĠYour": 3392,
      "Ġequipment": 3393,
      "ĠJuly": 3394,
      "overy": 3395,
      "Ġpartners": 3396,
      "Ġscen": 3397,
      "Ġassum": 3398,
      "ditionally": 3399,
      "incoln": 3400,
      "ĠArabic": 3401,
      "39": 3402,
      "ii": 3403,
      "Ġtheore": 3404,
      "Ġcateg": 3405,
      "ĠFurther": 3406,
      "Ġexperien": 3407,
      "Ġprojects": 3408,
      "ĠResearch": 3409,
      "idents": 3410,
      "ĠCity": 3411,
      "Ġquite": 3412,
      "Ġeveryone": 3413,
      "Ġnormal": 3414,
      "Ġdrug": 3415,
      "Ġhope": 3416,
      "Ġcarbon": 3417,
      "Ġobserved": 3418,
      "Ġpick": 3419,
      "ĠBo": 3420,
      "Ġoutput": 3421,
      "Ġacqu": 3422,
      "Ġfire": 3423,
      "Ġharm": 3424,
      "Ġlat": 3425,
      "55": 3426,
      "cop": 3427,
      "off": 3428,
      "uild": 3429,
      "Ġtou": 3430,
      "ĠDis": 3431,
      "rial": 3432,
      "apter": 3433,
      "Ġresistance": 3434,
      "ĠChina": 3435,
      "Ġprint": 3436,
      "ogle": 3437,
      "Ġstudent": 3438,
      "One": 3439,
      "Ġexerc": 3440,
      "Ġround": 3441,
      "Ġappropri": 3442,
      "Ġcampaign": 3443,
      "Ġprinciples": 3444,
      "sqrt": 3445,
      "ios": 3446,
      "lor": 3447,
      "rehens": 3448,
      "Ġforces": 3449,
      "SC": 3450,
      "Ġwatch": 3451,
      "Ġformer": 3452,
      "ĠNe": 3453,
      "ĠOther": 3454,
      "Ġtransform": 3455,
      "Ph": 3456,
      "ris": 3457,
      "oration": 3458,
      "Ġnorth": 3459,
      "resh": 3460,
      "Ġdefined": 3461,
      "rest": 3462,
      "Ġdog": 3463,
      "ils": 3464,
      "ĠCong": 3465,
      "phas": 3466,
      "Ġextra": 3467,
      "Ġiniti": 3468,
      "Ġresponsible": 3469,
      "Ġsus": 3470,
      "ests": 3471,
      "Ġhighly": 3472,
      "Ġbox": 3473,
      "Ġbasic": 3474,
      "www": 3475,
      "Ġsatis": 3476,
      "eries": 3477,
      "Ġlack": 3478,
      "Ġproced": 3479,
      "ĠThrough": 3480,
      "ãĢ": 3481,
      "ali": 3482,
      "oud": 3483,
      "see": 3484,
      "Ġmeasures": 3485,
      "ĠRepublic": 3486,
      "Ġlives": 3487,
      "ĠDav": 3488,
      "Ġ2017": 3489,
      "ening": 3490,
      "ola": 3491,
      "cember": 3492,
      "ĠSince": 3493,
      "Ġalk": 3494,
      "Ġeasily": 3495,
      "ĠIntroduction": 3496,
      "ĠThen": 3497,
      "Ġblog": 3498,
      "Ġeverything": 3499,
      "ĠSept": 3500,
      "Ġelectric": 3501,
      "mar": 3502,
      "uge": 3503,
      "Ġox": 3504,
      "Ġearlier": 3505,
      "haps": 3506,
      "Ġwrote": 3507,
      "Ġerror": 3508,
      "Ġmap": 3509,
      "Ġvict": 3510,
      "Ġjour": 3511,
      "ĠStr": 3512,
      "Ġplanning": 3513,
      "jan": 3514,
      "Ġwond": 3515,
      "isms": 3516,
      "Ġreact": 3517,
      "Ġnovel": 3518,
      "Ġexpand": 3519,
      "Ġfollowed": 3520,
      "Ġreceive": 3521,
      "Ġfriend": 3522,
      "Ġquickly": 3523,
      "ĠAugust": 3524,
      "Ġmilitary": 3525,
      "itable": 3526,
      "odes": 3527,
      "ĠFin": 3528,
      "Ġpoll": 3529,
      "asons": 3530,
      "Ġreach": 3531,
      "ĠCor": 3532,
      "ĠBar": 3533,
      "ession": 3534,
      "Ġsuff": 3535,
      "Ġmember": 3536,
      "Ġimportance": 3537,
      "oo": 3538,
      "Ġsem": 3539,
      "ĠMat": 3540,
      "ĠOff": 3541,
      "ensity": 3542,
      "Ġrecip": 3543,
      "Ġoptim": 3544,
      "Ġmovement": 3545,
      "ĠWeb": 3546,
      "Ġblock": 3547,
      "Ġdeveloping": 3548,
      "Ġinitial": 3549,
      "Ġdetermine": 3550,
      "Ġconcent": 3551,
      "mathrm": 3552,
      "Ġoperations": 3553,
      "âĪĴ": 3554,
      "Ġutil": 3555,
      "Ġcand": 3556,
      "oper": 3557,
      "Ġcareer": 3558,
      "Ġdrive": 3559,
      "Ġdate": 3560,
      "Ġactive": 3561,
      "Ġcontinued": 3562,
      "Ġaware": 3563,
      "Ġdat": 3564,
      "ĠII": 3565,
      "Ġvac": 3566,
      "Ġspeed": 3567,
      "Ġsales": 3568,
      "icated": 3569,
      "Ġded": 3570,
      "Ġlost": 3571,
      "Ġisn": 3572,
      "Ġgenerally": 3573,
      "Ġmathemat": 3574,
      "Ġbirth": 3575,
      "Ġmut": 3576,
      "Ġ2014": 3577,
      "aid": 3578,
      "ees": 3579,
      "Ġtur": 3580,
      "ĠChe": 3581,
      "Ġworth": 3582,
      "vention": 3583,
      "Ġenvironmental": 3584,
      "Ġopportunity": 3585,
      "49": 3586,
      "Ġur": 3587,
      "Ġnamed": 3588,
      "uls": 3589,
      "ĠMarch": 3590,
      "ordin": 3591,
      "Ġanything": 3592,
      "Ġsurv": 3593,
      "Ġsociety": 3594,
      "ira": 3595,
      "icip": 3596,
      "oday": 3597,
      "Ġfactor": 3598,
      "ĠIndian": 3599,
      "Ġchoose": 3600,
      "onic": 3601,
      "ĠDel": 3602,
      "Ġyourself": 3603,
      "oyal": 3604,
      "Ġdistance": 3605,
      "Ġ$$\\": 3606,
      "Ġbooks": 3607,
      "ĠAnt": 3608,
      "otes": 3609,
      "ĠWest": 3610,
      "ĠKing": 3611,
      "Ġtypically": 3612,
      "Ġconcerns": 3613,
      "Ġprivate": 3614,
      "da": 3615,
      "Ġhab": 3616,
      "oles": 3617,
      "Ġtrust": 3618,
      "Ġgradu": 3619,
      "Ġmetal": 3620,
      "ingu": 3621,
      "Ġcancer": 3622,
      "Ġlimit": 3623,
      "Ġprobability": 3624,
      "47": 3625,
      "hy": 3626,
      "oul": 3627,
      "ĠMc": 3628,
      "Ġcontext": 3629,
      "Ġsoon": 3630,
      "ought": 3631,
      "cil": 3632,
      "eks": 3633,
      "ĠEduc": 3634,
      "aint": 3635,
      "irection": 3636,
      "hesis": 3637,
      "Ġmemory": 3638,
      "Ġconstruct": 3639,
      "ophy": 3640,
      "iance": 3641,
      "xi": 3642,
      "Ġdivid": 3643,
      "ĠLincoln": 3644,
      "ecause": 3645,
      "ĠJew": 3646,
      "Ġ\\\\": 3647,
      "Ġextreme": 3648,
      "steroid": 3649,
      "Ġprofession": 3650,
      "ĠAssoci": 3651,
      "ederal": 3652,
      "Ġnation": 3653,
      "olid": 3654,
      "Ġinsights": 3655,
      "Ġlinear": 3656,
      "acters": 3657,
      "Ġrecently": 3658,
      "Ġ2015": 3659,
      "dam": 3660,
      "Ġtherap": 3661,
      "Ġmount": 3662,
      "orthern": 3663,
      "ervation": 3664,
      "Ġserve": 3665,
      "Ġsmaller": 3666,
      "Ġpredict": 3667,
      "Ġrelationships": 3668,
      "BC": 3669,
      "istan": 3670,
      "Ġcompl": 3671,
      "Ġorganization": 3672,
      "Ġcurrently": 3673,
      "Ġlibusb": 3674,
      "ĠGreek": 3675,
      "lock": 3676,
      "arian": 3677,
      "Ġwhose": 3678,
      "pha": 3679,
      "Ġattract": 3680,
      "Ġallowing": 3681,
      "Ġanti": 3682,
      "ĠJanuary": 3683,
      "36": 3684,
      "He": 3685,
      "Ġcit": 3686,
      "Ġcraft": 3687,
      "Ġgold": 3688,
      "Ġconvers": 3689,
      "Ġplants": 3690,
      "Ġimag": 3691,
      "Ġapply": 3692,
      "ension": 3693,
      "overn": 3694,
      "Ġstandards": 3695,
      "ĠCalif": 3696,
      "ĠPresident": 3697,
      "iful": 3698,
      "ĠBell": 3699,
      "Ġmatch": 3700,
      "Ġmulti": 3701,
      "Ġrequirements": 3702,
      "ĠSystem": 3703,
      "Re": 3704,
      "cal": 3705,
      "abet": 3706,
      "ridge": 3707,
      "Ġchemical": 3708,
      "Ġcivil": 3709,
      "style": 3710,
      "Ġsett": 3711,
      "Ġwild": 3712,
      "Ġhom": 3713,
      "Ġhyp": 3714,
      "ĠPol": 3715,
      "ĠNow": 3716,
      "Ġcompar": 3717,
      "Ġsmo": 3718,
      "force": 3719,
      "ashington": 3720,
      ")\\": 3721,
      "US": 3722,
      "elines": 3723,
      "Ġ27": 3724,
      "ovember": 3725,
      "ĠOctober": 3726,
      "ET": 3727,
      "bed": 3728,
      "ham": 3729,
      "unction": 3730,
      "ellow": 3731,
      "Ġsaw": 3732,
      "Ġexpert": 3733,
      "Ġbalance": 3734,
      "PR": 3735,
      "inter": 3736,
      "Ġep": 3737,
      "ĠScience": 3738,
      "ĠDecember": 3739,
      "uit": 3740,
      "itect": 3741,
      "Ġrent": 3742,
      "change": 3743,
      "ĠHer": 3744,
      "Ġ2018": 3745,
      "ĠClass": 3746,
      "ĠInstitute": 3747,
      "uman": 3748,
      "Ġbrain": 3749,
      "Ġindependent": 3750,
      "encies": 3751,
      "LA": 3752,
      "Ġsong": 3753,
      "Ġbad": 3754,
      "Ġmother": 3755,
      "oming": 3756,
      "Ġnavig": 3757,
      "Ġatm": 3758,
      "Ġcommerc": 3759,
      "iam": 3760,
      "isl": 3761,
      "key": 3762,
      "Ġgoal": 3763,
      "plications": 3764,
      "Ġplease": 3765,
      "ĠLa": 3766,
      "Ġcollection": 3767,
      "Ġreading": 3768,
      "Ġrelevant": 3769,
      "Ġexisting": 3770,
      "Ġwrite": 3771,
      "ĠCanada": 3772,
      "ĠSeptember": 3773,
      "77": 3774,
      "Ġsouth": 3775,
      "Ġwarm": 3776,
      "Ġfarm": 3777,
      "Ġmid": 3778,
      "Un": 3779,
      "Ġstore": 3780,
      "Ġitems": 3781,
      "ighb": 3782,
      "Ġpowerful": 3783,
      "Ġrunning": 3784,
      "}(": 3785,
      "onal": 3786,
      "Ġstop": 3787,
      "ĠInc": 3788,
      "Ġregions": 3789,
      "48": 3790,
      "With": 3791,
      "icine": 3792,
      "Ġtown": 3793,
      "Ġlic": 3794,
      "Ġstage": 3795,
      "outhern": 3796,
      "ffect": 3797,
      "ĠUnion": 3798,
      "Ġcaused": 3799,
      "By": 3800,
      "ened": 3801,
      "ĠAud": 3802,
      "Ġchance": 3803,
      "ĠProg": 3804,
      "ĠGoogle": 3805,
      "Ġsold": 3806,
      "Ġmental": 3807,
      "ulated": 3808,
      "ĠDec": 3809,
      "pe": 3810,
      "Ġdaily": 3811,
      "ĠAccording": 3812,
      "Ġresulting": 3813,
      "Ġeffectively": 3814,
      "Ġhands": 3815,
      "ranch": 3816,
      "Ġlandsc": 3817,
      "ornia": 3818,
      "che": 3819,
      "ĠÎ": 3820,
      "Ġwall": 3821,
      "uries": 3822,
      "ĠHar": 3823,
      "Ġassist": 3824,
      "Ġdistinct": 3825,
      "Ġelectr": 3826,
      "Ġten": 3827,
      "Ġwanted": 3828,
      "Ġinvolves": 3829,
      "Ġsites": 3830,
      "Ġstructures": 3831,
      "Ġbott": 3832,
      "Ġ22": 3833,
      "Ġsea": 3834,
      "ĠAlthough": 3835,
      "Ġbackground": 3836,
      "ĠPhil": 3837,
      "Ġcontribute": 3838,
      "ĠAustral": 3839,
      "ĠGerman": 3840,
      ")=": 3841,
      "life": 3842,
      "Ġstar": 3843,
      "Ġshap": 3844,
      "ĠJust": 3845,
      "ĠExpl": 3846,
      "Ġthinking": 3847,
      "Ġstream": 3848,
      "mathbb": 3849,
      "vere": 3850,
      "ĠMor": 3851,
      "Ġdecre": 3852,
      "iar": 3853,
      "Ġstars": 3854,
      "Ġbasis": 3855,
      "trans": 3856,
      "Ġprote": 3857,
      "Ġshared": 3858,
      "Ġparty": 3859,
      "Ġrecommend": 3860,
      "enge": 3861,
      "Ġcore": 3862,
      "Ġfully": 3863,
      "ager": 3864,
      "stein": 3865,
      "emporary": 3866,
      "ĠFirst": 3867,
      "ocr": 3868,
      "Ġclos": 3869,
      "Ġgoals": 3870,
      "Ġremember": 3871,
      "Ġcharacters": 3872,
      "ĠIndia": 3873,
      "ĠAcadem": 3874,
      "omin": 3875,
      "Ġstra": 3876,
      "mitted": 3877,
      "Ġexpected": 3878,
      "Ġstrength": 3879,
      "Ġmicro": 3880,
      "ĠMany": 3881,
      "ancy": 3882,
      "Ġdial": 3883,
      "Ġevolution": 3884,
      "Ġtherefore": 3885,
      "ĠAdditionally": 3886,
      "ref": 3887,
      "ĠPract": 3888,
      "56": 3889,
      "ĠMost": 3890,
      "Ġalc": 3891,
      "ĠWashington": 3892,
      "ĠLaw": 3893,
      "Ġsyn": 3894,
      "Ġcool": 3895,
      "####": 3896,
      "hips": 3897,
      "Ġprocessing": 3898,
      "aska": 3899,
      "ĠUnderstanding": 3900,
      "cd": 3901,
      "Ġir": 3902,
      "Ġpiece": 3903,
      "Ġtold": 3904,
      "ĠLib": 3905,
      "Ġ2019": 3906,
      "Ġenter": 3907,
      "Ġminim": 3908,
      "Ġslow": 3909,
      "Ġmaster": 3910,
      "ourt": 3911,
      "Ġ2006": 3912,
      "Ġplayer": 3913,
      "Ġobjects": 3914,
      "hetic": 3915,
      "Ġastron": 3916,
      "col": 3917,
      "Ġwid": 3918,
      "Ġgave": 3919,
      "ĠMount": 3920,
      "Ġprime": 3921,
      "Ġdecisions": 3922,
      "Ġcenter": 3923,
      "Ġtim": 3924,
      "Ġweeks": 3925,
      "ocks": 3926,
      "ĠNovember": 3927,
      "Ġtransl": 3928,
      "ĠConst": 3929,
      "Ġinteresting": 3930,
      "Ġevalu": 3931,
      "ying": 3932,
      "ĠBook": 3933,
      "throp": 3934,
      "Ġadminist": 3935,
      "Ġformed": 3936,
      "Ġsurrounding": 3937,
      "Ġjourney": 3938,
      "ĠCalifornia": 3939,
      "oes": 3940,
      "Ġmag": 3941,
      "que": 3942,
      "phi": 3943,
      "Ġpatterns": 3944,
      "gy": 3945,
      "ortion": 3946,
      "ĠMoreover": 3947,
      "Ġplatforms": 3948,
      "Ġtool": 3949,
      "eting": 3950,
      "acity": 3951,
      "ĠPhys": 3952,
      "Ġvector": 3953,
      "Ġparents": 3954,
      "point": 3955,
      "Ġson": 3956,
      "Ġfair": 3957,
      "Ġhimself": 3958,
      "Ġbed": 3959,
      "Ġexhib": 3960,
      "III": 3961,
      "38": 3962,
      "ulate": 3963,
      "Ġemphas": 3964,
      "Ġ2008": 3965,
      "Ġhistorical": 3966,
      "aling": 3967,
      "Ġstaff": 3968,
      "Ġrules": 3969,
      "Ġcompound": 3970,
      "Ġadult": 3971,
      "Ġcontroll": 3972,
      "Ġoffice": 3973,
      "Ġassign": 3974,
      "ĠDevelopment": 3975,
      "',": 3976,
      "oe": 3977,
      "},": 3978,
      "Ġthreat": 3979,
      "omic": 3980,
      "Ġpoly": 3981,
      "ometry": 3982,
      "75": 3983,
      "ĠTr": 3984,
      "Ġrelation": 3985,
      "Ġpatient": 3986,
      "Ġsituation": 3987,
      "Ġefficient": 3988,
      "Ġdamage": 3989,
      "Ġteams": 3990,
      "Ġillust": 3991,
      "nes": 3992,
      "vision": 3993,
      "Ġing": 3994,
      "ĠDesign": 3995,
      "ruary": 3996,
      "Ġearth": 3997,
      "Ġsummer": 3998,
      "Ġenhance": 3999,
      "ĠAfrica": 4000,
      "used": 4001,
      "Ġanimal": 4002,
      "Ġchann": 4003,
      "Ġsetting": 4004,
      "Ġspecifically": 4005,
      "Ġalternative": 4006,
      "uth": 4007,
      "ogen": 4008,
      "ags": 4009,
      "Ġgrowing": 4010,
      "Ġ28": 4011,
      "Ġshall": 4012,
      "Ġimages": 4013,
      "ĠAsia": 4014,
      "Ġreduced": 4015,
      "Sp": 4016,
      "ĠSoci": 4017,
      "ĠCur": 4018,
      "Ġexcell": 4019,
      "Ġspread": 4020,
      "ibly": 4021,
      "Ġbehavi": 4022,
      "board": 4023,
      "dis": 4024,
      "hand": 4025,
      "ĠHere": 4026,
      "Ġteac": 4027,
      "Ġpret": 4028,
      "Ġexperienced": 4029,
      "orage": 4030,
      "Ġmil": 4031,
      "Ġstru": 4032,
      "Ġcomprehens": 4033,
      "pective": 4034,
      "Ġtechnologies": 4035,
      "ĠSpec": 4036,
      "Ġasked": 4037,
      "Ġappropriate": 4038,
      "05": 4039,
      "vest": 4040,
      "Ġpsych": 4041,
      "ana": 4042,
      "Ġappeal": 4043,
      "Ġrapid": 4044,
      "Ġload": 4045,
      "pped": 4046,
      "ĠWork": 4047,
      "ĠUN": 4048,
      "Ġcopy": 4049,
      "PS": 4050,
      "Ġdry": 4051,
      "eters": 4052,
      "Ġalign": 4053,
      "Ġ26": 4054,
      "ĠRel": 4055,
      "Ġevol": 4056,
      "ounced": 4057,
      "Ġcompletely": 4058,
      "ĠCongress": 4059,
      "Ġcommercial": 4060,
      "Ġtend": 4061,
      "odies": 4062,
      "Ġcomfort": 4063,
      "ĠAlban": 4064,
      "Ġstarting": 4065,
      "Ġidentify": 4066,
      "Ġconnection": 4067,
      "Ġpurpose": 4068,
      "Ġnut": 4069,
      "wood": 4070,
      "ghan": 4071,
      "Ġplaces": 4072,
      "asts": 4073,
      "Ġstrategy": 4074,
      "ĠBlack": 4075,
      "works": 4076,
      "Ġsch": 4077,
      "Ġsolid": 4078,
      "RE": 4079,
      "Ġnuc": 4080,
      "ĠDirect": 4081,
      "Ġcharge": 4082,
      "Ġplans": 4083,
      "ords": 4084,
      "TM": 4085,
      "çļ": 4086,
      "alle": 4087,
      "Ġfine": 4088,
      "olf": 4089,
      "ĠGroup": 4090,
      "Ġexamples": 4091,
      "Ġplayed": 4092,
      "Ġdeliver": 4093,
      "Ġsleep": 4094,
      "çļĦ": 4095
    },
    "merges": [
      [
        "Ġ",
        "t"
      ],
      [
        "Ġ",
        "a"
      ],
      [
        "i",
        "n"
      ],
      [
        "h",
        "e"
      ],
      [
        "o",
        "n"
      ],
      [
        "r",
        "e"
      ],
      [
        "e",
        "r"
      ],
      [
        "Ġt",
        "he"
      ],
      [
        "a",
        "t"
      ],
      [
        "Ġ",
        "s"
      ],
      [
        "Ġ",
        "o"
      ],
      [
        "e",
        "n"
      ],
      [
        "Ġ",
        "c"
      ],
      [
        "e",
        "s"
      ],
      [
        "n",
        "d"
      ],
      [
        "i",
        "t"
      ],
      [
        "Ġ",
        "w"
      ],
      [
        "o",
        "r"
      ],
      [
        "i",
        "s"
      ],
      [
        "a",
        "l"
      ],
      [
        "in",
        "g"
      ],
      [
        "Ġ",
        "p"
      ],
      [
        "Ġ",
        "f"
      ],
      [
        "a",
        "n"
      ],
      [
        "e",
        "d"
      ],
      [
        "Ġ",
        "b"
      ],
      [
        "Ġo",
        "f"
      ],
      [
        "Ġ",
        "in"
      ],
      [
        "a",
        "r"
      ],
      [
        "o",
        "u"
      ],
      [
        "i",
        "on"
      ],
      [
        "Ġa",
        "nd"
      ],
      [
        "Ġ",
        "m"
      ],
      [
        "i",
        "c"
      ],
      [
        "Ġt",
        "o"
      ],
      [
        "Ġ",
        "d"
      ],
      [
        "l",
        "e"
      ],
      [
        "r",
        "o"
      ],
      [
        "a",
        "s"
      ],
      [
        "en",
        "t"
      ],
      [
        "Ġ",
        "h"
      ],
      [
        "c",
        "t"
      ],
      [
        "Ġt",
        "h"
      ],
      [
        "Ġ",
        "e"
      ],
      [
        "Ġ",
        "re"
      ],
      [
        "o",
        "m"
      ],
      [
        "s",
        "t"
      ],
      [
        "i",
        "l"
      ],
      [
        "v",
        "e"
      ],
      [
        "Ġ",
        "l"
      ],
      [
        "Ġ",
        "n"
      ],
      [
        "e",
        "t"
      ],
      [
        "l",
        "y"
      ],
      [
        "Ġ",
        "A"
      ],
      [
        "at",
        "ion"
      ],
      [
        "o",
        "l"
      ],
      [
        "Ġ",
        "T"
      ],
      [
        "r",
        "a"
      ],
      [
        "i",
        "m"
      ],
      [
        "Ġ",
        "g"
      ],
      [
        "Ġ",
        "is"
      ],
      [
        "i",
        "d"
      ],
      [
        "=",
        "="
      ],
      [
        "c",
        "e"
      ],
      [
        "u",
        "t"
      ],
      [
        "Ġ",
        "S"
      ],
      [
        "i",
        "g"
      ],
      [
        "o",
        "t"
      ],
      [
        "u",
        "s"
      ],
      [
        "u",
        "r"
      ],
      [
        "Ġ",
        "I"
      ],
      [
        "Ġf",
        "or"
      ],
      [
        "Ġb",
        "e"
      ],
      [
        "c",
        "h"
      ],
      [
        "o",
        "w"
      ],
      [
        "Ġ",
        "C"
      ],
      [
        "Ġ",
        "on"
      ],
      [
        "v",
        "er"
      ],
      [
        "e",
        "l"
      ],
      [
        "Ġs",
        "t"
      ],
      [
        "a",
        "m"
      ],
      [
        "Ġ",
        "y"
      ],
      [
        "â",
        "Ģ"
      ],
      [
        "u",
        "l"
      ],
      [
        "it",
        "h"
      ],
      [
        "a",
        "y"
      ],
      [
        "i",
        "r"
      ],
      [
        "Ġth",
        "at"
      ],
      [
        "Ġp",
        "ro"
      ],
      [
        "Ġc",
        "on"
      ],
      [
        "Ġa",
        "s"
      ],
      [
        "Ġ",
        "M"
      ],
      [
        "Ġw",
        "ith"
      ],
      [
        "s",
        "e"
      ],
      [
        "a",
        "d"
      ],
      [
        "Ġ",
        "("
      ],
      [
        "u",
        "n"
      ],
      [
        "Ġa",
        "n"
      ],
      [
        "i",
        "f"
      ],
      [
        "er",
        "s"
      ],
      [
        "Ġy",
        "ou"
      ],
      [
        "Ġa",
        "l"
      ],
      [
        "Ġ",
        "P"
      ],
      [
        "he",
        "r"
      ],
      [
        "m",
        "ent"
      ],
      [
        "Ġ",
        "1"
      ],
      [
        "Ġ",
        "it"
      ],
      [
        "at",
        "e"
      ],
      [
        "t",
        "er"
      ],
      [
        "Ġ",
        "B"
      ],
      [
        "Ġw",
        "h"
      ],
      [
        "is",
        "t"
      ],
      [
        "g",
        "e"
      ],
      [
        "o",
        "d"
      ],
      [
        "a",
        "b"
      ],
      [
        "Ġe",
        "x"
      ],
      [
        "Ġo",
        "r"
      ],
      [
        "Ġc",
        "om"
      ],
      [
        "es",
        "s"
      ],
      [
        "i",
        "es"
      ],
      [
        "o",
        "p"
      ],
      [
        "Ġa",
        "re"
      ],
      [
        "ĠT",
        "he"
      ],
      [
        "re",
        "s"
      ],
      [
        "q",
        "u"
      ],
      [
        "it",
        "y"
      ],
      [
        "Ġd",
        "e"
      ],
      [
        "t",
        "h"
      ],
      [
        "u",
        "m"
      ],
      [
        "i",
        "ve"
      ],
      [
        "Ġ",
        "v"
      ],
      [
        "e",
        "ct"
      ],
      [
        "es",
        "t"
      ],
      [
        "p",
        "p"
      ],
      [
        "Ġ",
        "H"
      ],
      [
        "il",
        "l"
      ],
      [
        "o",
        "s"
      ],
      [
        "Ġw",
        "e"
      ],
      [
        "i",
        "v"
      ],
      [
        "a",
        "nd"
      ],
      [
        "Ġ",
        "D"
      ],
      [
        "Ġ",
        "2"
      ],
      [
        "o",
        "re"
      ],
      [
        "ig",
        "h"
      ],
      [
        "Ġ",
        "R"
      ],
      [
        "a",
        "c"
      ],
      [
        "Ġ",
        "W"
      ],
      [
        "e",
        "m"
      ],
      [
        "Ġ",
        "F"
      ],
      [
        "k",
        "e"
      ],
      [
        "Ġa",
        "t"
      ],
      [
        "Ġ",
        "E"
      ],
      [
        "Ġb",
        "y"
      ],
      [
        "Ġs",
        "u"
      ],
      [
        "o",
        "c"
      ],
      [
        "a",
        "in"
      ],
      [
        "Ġ",
        "he"
      ],
      [
        "an",
        "t"
      ],
      [
        "ro",
        "m"
      ],
      [
        "r",
        "i"
      ],
      [
        "l",
        "d"
      ],
      [
        "Ġ",
        "L"
      ],
      [
        "e",
        "w"
      ],
      [
        "or",
        "t"
      ],
      [
        "n",
        "t"
      ],
      [
        "i",
        "al"
      ],
      [
        "Ġs",
        "e"
      ],
      [
        "Ġh",
        "a"
      ],
      [
        "u",
        "d"
      ],
      [
        "Ġ",
        "r"
      ],
      [
        "Ġ",
        "N"
      ],
      [
        "Ġ",
        "us"
      ],
      [
        "Ġw",
        "as"
      ],
      [
        "u",
        "re"
      ],
      [
        "Ġf",
        "rom"
      ],
      [
        "Ġ",
        "G"
      ],
      [
        "ar",
        "t"
      ],
      [
        "ic",
        "al"
      ],
      [
        "ion",
        "s"
      ],
      [
        "Ġc",
        "h"
      ],
      [
        "Ġ",
        "en"
      ],
      [
        "igh",
        "t"
      ],
      [
        "p",
        "t"
      ],
      [
        "o",
        "g"
      ],
      [
        "p",
        "l"
      ],
      [
        "âĢ",
        "Ļ"
      ],
      [
        "Ġ",
        "le"
      ],
      [
        "Ġc",
        "an"
      ],
      [
        "'",
        "s"
      ],
      [
        "Ġth",
        "is"
      ],
      [
        "u",
        "st"
      ],
      [
        "al",
        "l"
      ],
      [
        "Ġs",
        "h"
      ],
      [
        "r",
        "ou"
      ],
      [
        "ar",
        "d"
      ],
      [
        "ou",
        "r"
      ],
      [
        "p",
        "er"
      ],
      [
        "Ġn",
        "ot"
      ],
      [
        "Ġ",
        "O"
      ],
      [
        "Ġha",
        "ve"
      ],
      [
        "0",
        "0"
      ],
      [
        "Ġ",
        "u"
      ],
      [
        "Ġs",
        "p"
      ],
      [
        "re",
        "d"
      ],
      [
        "g",
        "h"
      ],
      [
        "i",
        "z"
      ],
      [
        "in",
        "e"
      ],
      [
        "a",
        "g"
      ],
      [
        "Ġin",
        "t"
      ],
      [
        "o",
        "st"
      ],
      [
        "Ġcom",
        "p"
      ],
      [
        "ation",
        "s"
      ],
      [
        "ou",
        "t"
      ],
      [
        "an",
        "s"
      ],
      [
        "a",
        "ct"
      ],
      [
        "at",
        "ed"
      ],
      [
        "Ġp",
        "l"
      ],
      [
        "==",
        "=="
      ],
      [
        "Ġa",
        "b"
      ],
      [
        "====",
        "="
      ],
      [
        "ic",
        "h"
      ],
      [
        "d",
        "u"
      ],
      [
        "Ġw",
        "or"
      ],
      [
        "id",
        "e"
      ],
      [
        "e",
        "c"
      ],
      [
        "f",
        "f"
      ],
      [
        "en",
        "d"
      ],
      [
        "as",
        "t"
      ],
      [
        "om",
        "e"
      ],
      [
        "i",
        "p"
      ],
      [
        "Ġ",
        "U"
      ],
      [
        "a",
        "ge"
      ],
      [
        "t",
        "her"
      ],
      [
        "ou",
        "s"
      ],
      [
        "el",
        "l"
      ],
      [
        "Ġ",
        "$"
      ],
      [
        "Ġa",
        "d"
      ],
      [
        "e",
        "ar"
      ],
      [
        "ul",
        "t"
      ],
      [
        "ou",
        "ld"
      ],
      [
        "Ġ",
        "im"
      ],
      [
        "Ġcon",
        "t"
      ],
      [
        "Ġ",
        "J"
      ],
      [
        "an",
        "ce"
      ],
      [
        "a",
        "p"
      ],
      [
        "i",
        "b"
      ],
      [
        "Ġw",
        "he"
      ],
      [
        "Ġal",
        "l"
      ],
      [
        "or",
        "m"
      ],
      [
        "a",
        "k"
      ],
      [
        "c",
        "c"
      ],
      [
        "Ġyou",
        "r"
      ],
      [
        "Ġre",
        "s"
      ],
      [
        "T",
        "he"
      ],
      [
        "Ġ",
        "un"
      ],
      [
        "on",
        "g"
      ],
      [
        "c",
        "l"
      ],
      [
        "Ġ",
        "\\"
      ],
      [
        "i",
        "a"
      ],
      [
        "r",
        "u"
      ],
      [
        "ĠI",
        "n"
      ],
      [
        "ig",
        "n"
      ],
      [
        "Ġthe",
        "ir"
      ],
      [
        "ab",
        "le"
      ],
      [
        "Ġw",
        "ill"
      ],
      [
        "Ġ",
        "k"
      ],
      [
        "a",
        "re"
      ],
      [
        "Ġ",
        "âĢ"
      ],
      [
        "ct",
        "ion"
      ],
      [
        "Ġm",
        "e"
      ],
      [
        "Ġwh",
        "ich"
      ],
      [
        "Ġh",
        "as"
      ],
      [
        "e",
        "re"
      ],
      [
        "ve",
        "l"
      ],
      [
        "Ġc",
        "l"
      ],
      [
        "o",
        "k"
      ],
      [
        "ar",
        "y"
      ],
      [
        "r",
        "y"
      ],
      [
        "e",
        "p"
      ],
      [
        "Ġ",
        "\""
      ],
      [
        "Ġ",
        "j"
      ],
      [
        "Ġn",
        "e"
      ],
      [
        "Ġa",
        "pp"
      ],
      [
        "as",
        "s"
      ],
      [
        "u",
        "al"
      ],
      [
        "ĠT",
        "h"
      ],
      [
        "im",
        "e"
      ],
      [
        "Ġb",
        "ut"
      ],
      [
        "en",
        "ce"
      ],
      [
        "Ġd",
        "is"
      ],
      [
        "ac",
        "k"
      ],
      [
        "b",
        "er"
      ],
      [
        "Ġd",
        "o"
      ],
      [
        ".",
        "."
      ],
      [
        "ic",
        "e"
      ],
      [
        "in",
        "d"
      ],
      [
        "it",
        "ion"
      ],
      [
        "Ġp",
        "er"
      ],
      [
        "s",
        "o"
      ],
      [
        "res",
        "s"
      ],
      [
        "Ġm",
        "ore"
      ],
      [
        "Ġm",
        "an"
      ],
      [
        "u",
        "e"
      ],
      [
        "Ġt",
        "e"
      ],
      [
        "f",
        "orm"
      ],
      [
        "0",
        "1"
      ],
      [
        "Ġg",
        "o"
      ],
      [
        "a",
        "ch"
      ],
      [
        "a",
        "v"
      ],
      [
        "a",
        "ce"
      ],
      [
        "Ġo",
        "ut"
      ],
      [
        "as",
        "e"
      ],
      [
        "ent",
        "s"
      ],
      [
        "Ġ",
        "K"
      ],
      [
        "Ġa",
        "r"
      ],
      [
        "Ġthe",
        "y"
      ],
      [
        "ĠS",
        "t"
      ],
      [
        "Ġon",
        "e"
      ],
      [
        "i",
        "le"
      ],
      [
        "it",
        "e"
      ],
      [
        "am",
        "e"
      ],
      [
        "Ġ",
        "-"
      ],
      [
        "Ġe",
        "v"
      ],
      [
        "c",
        "es"
      ],
      [
        "i",
        "re"
      ],
      [
        "Ġo",
        "ther"
      ],
      [
        "a",
        "ke"
      ],
      [
        "Ġs",
        "o"
      ],
      [
        "k",
        "s"
      ],
      [
        "Ġp",
        "art"
      ],
      [
        "i",
        "ke"
      ],
      [
        "or",
        "s"
      ],
      [
        "u",
        "b"
      ],
      [
        "en",
        "s"
      ],
      [
        "Ġim",
        "p"
      ],
      [
        "re",
        "at"
      ],
      [
        "Ġu",
        "p"
      ],
      [
        "o",
        "se"
      ],
      [
        "ver",
        "y"
      ],
      [
        "o",
        "ok"
      ],
      [
        "p",
        "h"
      ],
      [
        "a",
        "il"
      ],
      [
        "in",
        "t"
      ],
      [
        "an",
        "g"
      ],
      [
        "Ġal",
        "so"
      ],
      [
        "or",
        "d"
      ],
      [
        "Ġh",
        "is"
      ],
      [
        "Ġ",
        "3"
      ],
      [
        "ou",
        "nt"
      ],
      [
        "i",
        "an"
      ],
      [
        "re",
        "e"
      ],
      [
        "ol",
        "l"
      ],
      [
        "on",
        "e"
      ],
      [
        "Ġit",
        "s"
      ],
      [
        ")",
        "."
      ],
      [
        "t",
        "e"
      ],
      [
        "ou",
        "nd"
      ],
      [
        "Ġt",
        "ra"
      ],
      [
        "r",
        "ic"
      ],
      [
        "Ġs",
        "c"
      ],
      [
        "Ġ1",
        "9"
      ],
      [
        "at",
        "h"
      ],
      [
        "er",
        "v"
      ],
      [
        "Ġ",
        "qu"
      ],
      [
        "on",
        "d"
      ],
      [
        "Ġwe",
        "re"
      ],
      [
        "at",
        "es"
      ],
      [
        "Ġab",
        "out"
      ],
      [
        "i",
        "e"
      ],
      [
        "or",
        "y"
      ],
      [
        "Ġ",
        "V"
      ],
      [
        "at",
        "er"
      ],
      [
        "ment",
        "s"
      ],
      [
        "Ġp",
        "re"
      ],
      [
        "Ġint",
        "o"
      ],
      [
        "Ġo",
        "ver"
      ],
      [
        "nd",
        "er"
      ],
      [
        "Ġcom",
        "m"
      ],
      [
        "at",
        "ing"
      ],
      [
        "Ġre",
        "c"
      ],
      [
        "rou",
        "gh"
      ],
      [
        "n",
        "ow"
      ],
      [
        "it",
        "ies"
      ],
      [
        "l",
        "l"
      ],
      [
        "is",
        "h"
      ],
      [
        "al",
        "ly"
      ],
      [
        "ĠC",
        "h"
      ],
      [
        ")",
        ","
      ],
      [
        "Ġ",
        "====="
      ],
      [
        "f",
        "t"
      ],
      [
        "Ġe",
        "m"
      ],
      [
        "Ġof",
        "f"
      ],
      [
        "m",
        "s"
      ],
      [
        "Ġcon",
        "s"
      ],
      [
        "Ġin",
        "d"
      ],
      [
        "ar",
        "k"
      ],
      [
        "Ġ",
        "ro"
      ],
      [
        "Ġt",
        "r"
      ],
      [
        "on",
        "s"
      ],
      [
        "Ġt",
        "ime"
      ],
      [
        "ter",
        "n"
      ],
      [
        "cl",
        "ud"
      ],
      [
        "Ġo",
        "ur"
      ],
      [
        "Ġs",
        "y"
      ],
      [
        "ing",
        "s"
      ],
      [
        "Ġwh",
        "o"
      ],
      [
        "f",
        "ere"
      ],
      [
        "Ġl",
        "ike"
      ],
      [
        "ver",
        "s"
      ],
      [
        "Ġa",
        "m"
      ],
      [
        "Ġa",
        "g"
      ],
      [
        "le",
        "ct"
      ],
      [
        "if",
        "ic"
      ],
      [
        "l",
        "ic"
      ],
      [
        "Ġth",
        "an"
      ],
      [
        "Ġs",
        "ome"
      ],
      [
        "ol",
        "og"
      ],
      [
        "Ġb",
        "et"
      ],
      [
        "w",
        "e"
      ],
      [
        "ay",
        "s"
      ],
      [
        "Ġ2",
        "01"
      ],
      [
        "Ġd",
        "es"
      ],
      [
        "Ġwhe",
        "n"
      ],
      [
        "o",
        "v"
      ],
      [
        "Ġthe",
        "re"
      ],
      [
        "ĠI",
        "t"
      ],
      [
        "ir",
        "st"
      ],
      [
        "Ġbe",
        "en"
      ],
      [
        "ar",
        "i"
      ],
      [
        "ou",
        "gh"
      ],
      [
        "Ġa",
        "cc"
      ],
      [
        "il",
        "d"
      ],
      [
        "Ġthe",
        "se"
      ],
      [
        "p",
        "le"
      ],
      [
        "o",
        "ve"
      ],
      [
        "il",
        "ity"
      ],
      [
        "Ġ",
        "Y"
      ],
      [
        "a",
        "us"
      ],
      [
        "Ġwor",
        "k"
      ],
      [
        "r",
        "it"
      ],
      [
        "ic",
        "s"
      ],
      [
        "w",
        "o"
      ],
      [
        "Ġbe",
        "c"
      ],
      [
        "o",
        "b"
      ],
      [
        "Ġ",
        "if"
      ],
      [
        "x",
        "t"
      ],
      [
        "y",
        "s"
      ],
      [
        "Ġan",
        "y"
      ],
      [
        "Ġy",
        "ear"
      ],
      [
        "Ġf",
        "in"
      ],
      [
        "ur",
        "ing"
      ],
      [
        "ra",
        "ct"
      ],
      [
        "ol",
        "d"
      ],
      [
        "Ġpro",
        "v"
      ],
      [
        "Ġin",
        "clud"
      ],
      [
        "Ġre",
        "l"
      ],
      [
        "at",
        "ive"
      ],
      [
        "ĠTh",
        "is"
      ],
      [
        "Ġre",
        "g"
      ],
      [
        "âĢ",
        "Ŀ"
      ],
      [
        "Ġp",
        "r"
      ],
      [
        "Ġu",
        "nder"
      ],
      [
        "Ġn",
        "ew"
      ],
      [
        "c",
        "ed"
      ],
      [
        "Ġ",
        "="
      ],
      [
        "Ġs",
        "a"
      ],
      [
        "e",
        "g"
      ],
      [
        "Ġh",
        "ad"
      ],
      [
        "Ġthe",
        "m"
      ],
      [
        "j",
        "ect"
      ],
      [
        "l",
        "es"
      ],
      [
        "Ġ",
        "ra"
      ],
      [
        "ation",
        "al"
      ],
      [
        "n",
        "ing"
      ],
      [
        "ro",
        "w"
      ],
      [
        "Ġsu",
        "ch"
      ],
      [
        "Ġre",
        "p"
      ],
      [
        "ri",
        "b"
      ],
      [
        "al",
        "s"
      ],
      [
        "Ġh",
        "ow"
      ],
      [
        "Ġw",
        "ould"
      ],
      [
        "Ġm",
        "ay"
      ],
      [
        "Ġst",
        "ud"
      ],
      [
        "ul",
        "ar"
      ],
      [
        "Ġin",
        "c"
      ],
      [
        "Ġk",
        "now"
      ],
      [
        "Ġ",
        "4"
      ],
      [
        "m",
        "er"
      ],
      [
        "Ġp",
        "e"
      ],
      [
        "Ġpro",
        "du"
      ],
      [
        "u",
        "res"
      ],
      [
        "Ġth",
        "rough"
      ],
      [
        "o",
        "od"
      ],
      [
        "Ġp",
        "h"
      ],
      [
        "Ġm",
        "y"
      ],
      [
        "Ġd",
        "if"
      ],
      [
        "Ġc",
        "o"
      ],
      [
        "he",
        "d"
      ],
      [
        "p",
        "ect"
      ],
      [
        "ut",
        "ion"
      ],
      [
        "Ġf",
        "irst"
      ],
      [
        "n",
        "e"
      ],
      [
        "Ġm",
        "od"
      ],
      [
        "vel",
        "op"
      ],
      [
        "Ġa",
        "ct"
      ],
      [
        "Ġe",
        "ff"
      ],
      [
        "f",
        "ul"
      ],
      [
        "ĠU",
        "n"
      ],
      [
        "Ġa",
        "c"
      ],
      [
        "Ġg",
        "en"
      ],
      [
        "Ġas",
        "s"
      ],
      [
        "Ġp",
        "o"
      ],
      [
        "Ġtr",
        "ans"
      ],
      [
        "Ġf",
        "e"
      ],
      [
        "Ġt",
        "wo"
      ],
      [
        "st",
        "em"
      ],
      [
        "rou",
        "nd"
      ],
      [
        "ot",
        "h"
      ],
      [
        "e",
        "b"
      ],
      [
        "Ġon",
        "ly"
      ],
      [
        "as",
        "ed"
      ],
      [
        "Ġwh",
        "at"
      ],
      [
        "f",
        "ter"
      ],
      [
        "Ġin",
        "v"
      ],
      [
        "er",
        "m"
      ],
      [
        "Ġn",
        "um"
      ],
      [
        "ĠA",
        "l"
      ],
      [
        "Ġn",
        "o"
      ],
      [
        "ow",
        "er"
      ],
      [
        "Ġf",
        "l"
      ],
      [
        "et",
        "h"
      ],
      [
        "#",
        "#"
      ],
      [
        "Ġ",
        "5"
      ],
      [
        "n",
        "g"
      ],
      [
        "Ġad",
        "d"
      ],
      [
        "Ġm",
        "ost"
      ],
      [
        "y",
        "p"
      ],
      [
        "is",
        "e"
      ],
      [
        "Ġo",
        "b"
      ],
      [
        "t",
        "ain"
      ],
      [
        "i",
        "ent"
      ],
      [
        "c",
        "k"
      ],
      [
        "Ġus",
        "e"
      ],
      [
        "Ġs",
        "et"
      ],
      [
        "we",
        "en"
      ],
      [
        "Ġne",
        "ed"
      ],
      [
        "Ġp",
        "os"
      ],
      [
        "ĠâĢ",
        "ľ"
      ],
      [
        "he",
        "n"
      ],
      [
        "Ġb",
        "l"
      ],
      [
        "o",
        "y"
      ],
      [
        "t",
        "ing"
      ],
      [
        "I",
        "n"
      ],
      [
        "Ġbet",
        "ween"
      ],
      [
        "is",
        "s"
      ],
      [
        "op",
        "le"
      ],
      [
        "v",
        "i"
      ],
      [
        "at",
        "a"
      ],
      [
        "Ġin",
        "ter"
      ],
      [
        "ch",
        "n"
      ],
      [
        "Ġc",
        "ol"
      ],
      [
        "pp",
        "ort"
      ],
      [
        "Ġsp",
        "ec"
      ],
      [
        "Ġsu",
        "b"
      ],
      [
        "ow",
        "n"
      ],
      [
        "ic",
        "k"
      ],
      [
        "t",
        "s"
      ],
      [
        "ra",
        "m"
      ],
      [
        "e",
        "f"
      ],
      [
        "c",
        "y"
      ],
      [
        "ĠA",
        "s"
      ],
      [
        "ĠâĢ",
        "ĵ"
      ],
      [
        "Ġre",
        "m"
      ],
      [
        "Ġex",
        "per"
      ],
      [
        "Ġwhe",
        "re"
      ],
      [
        "aus",
        "e"
      ],
      [
        "he",
        "s"
      ],
      [
        "Ġg",
        "et"
      ],
      [
        "Ġv",
        "ari"
      ],
      [
        "in",
        "k"
      ],
      [
        "Ġus",
        "ed"
      ],
      [
        "i",
        "ed"
      ],
      [
        "ro",
        "p"
      ],
      [
        "a",
        "w"
      ],
      [
        "on",
        "t"
      ],
      [
        "Ġat",
        "t"
      ],
      [
        "w",
        "ard"
      ],
      [
        "Ġde",
        "velop"
      ],
      [
        "Ġfor",
        "m"
      ],
      [
        "ib",
        "le"
      ],
      [
        "Ġde",
        "c"
      ],
      [
        "Ġ",
        "&"
      ],
      [
        "Ġsy",
        "stem"
      ],
      [
        "Ġj",
        "ust"
      ],
      [
        "it",
        "s"
      ],
      [
        "an",
        "ge"
      ],
      [
        "ic",
        "es"
      ],
      [
        "c",
        "ess"
      ],
      [
        "b",
        "le"
      ],
      [
        "u",
        "es"
      ],
      [
        "Ġdif",
        "fere"
      ],
      [
        "l",
        "p"
      ],
      [
        "id",
        "ent"
      ],
      [
        "Ġpe",
        "ople"
      ],
      [
        "_",
        "_"
      ],
      [
        "Ġb",
        "u"
      ],
      [
        "Ġin",
        "st"
      ],
      [
        "Ġ",
        "her"
      ],
      [
        "Ġs",
        "im"
      ],
      [
        "Ġex",
        "p"
      ],
      [
        "Ġ2",
        "00"
      ],
      [
        "Ġp",
        "res"
      ],
      [
        "Ġh",
        "igh"
      ],
      [
        "Ġex",
        "am"
      ],
      [
        "Ġl",
        "oc"
      ],
      [
        "Ġman",
        "y"
      ],
      [
        "Ġthe",
        "n"
      ],
      [
        "h",
        "ip"
      ],
      [
        "t",
        "en"
      ],
      [
        "ĠH",
        "e"
      ],
      [
        "Ġs",
        "ign"
      ],
      [
        "al",
        "th"
      ],
      [
        "ĠA",
        "n"
      ],
      [
        "Ġst",
        "r"
      ],
      [
        "Ġhe",
        "lp"
      ],
      [
        "Ġw",
        "ell"
      ],
      [
        "Ġde",
        "f"
      ],
      [
        "e",
        "ver"
      ],
      [
        "il",
        "y"
      ],
      [
        "oll",
        "ow"
      ],
      [
        "Ġs",
        "ur"
      ],
      [
        "Ġf",
        "un"
      ],
      [
        "w",
        "n"
      ],
      [
        "ad",
        "e"
      ],
      [
        "ers",
        "on"
      ],
      [
        "ar",
        "ch"
      ],
      [
        "el",
        "f"
      ],
      [
        "Ġ",
        "0"
      ],
      [
        "ce",
        "pt"
      ],
      [
        "ic",
        "t"
      ],
      [
        "ĠP",
        "ro"
      ],
      [
        "i",
        "ence"
      ],
      [
        "ar",
        "g"
      ],
      [
        "ur",
        "n"
      ],
      [
        "Ġs",
        "ol"
      ],
      [
        "g",
        "an"
      ],
      [
        "Ġdis",
        "c"
      ],
      [
        "iz",
        "e"
      ],
      [
        "f",
        "ore"
      ],
      [
        "Ġv",
        "al"
      ],
      [
        "Ġe",
        "qu"
      ],
      [
        "-",
        "-"
      ],
      [
        "it",
        "ed"
      ],
      [
        "if",
        "e"
      ],
      [
        "oc",
        "k"
      ],
      [
        "ĠW",
        "e"
      ],
      [
        "ag",
        "es"
      ],
      [
        "Ġc",
        "ould"
      ],
      [
        "Ġm",
        "ake"
      ],
      [
        "..",
        "."
      ],
      [
        "Ġte",
        "chn"
      ],
      [
        "Ġd",
        "ist"
      ],
      [
        "ĠC",
        "om"
      ],
      [
        "olog",
        "y"
      ],
      [
        "Ġs",
        "m"
      ],
      [
        "in",
        "es"
      ],
      [
        "ical",
        "ly"
      ],
      [
        "iv",
        "es"
      ],
      [
        "ent",
        "ial"
      ],
      [
        "Ġse",
        "e"
      ],
      [
        "Ġgen",
        "er"
      ],
      [
        "Ġwh",
        "ile"
      ],
      [
        "'",
        "t"
      ],
      [
        "iz",
        "ed"
      ],
      [
        "i",
        "qu"
      ],
      [
        "u",
        "ch"
      ],
      [
        "or",
        "k"
      ],
      [
        "Ġs",
        "erv"
      ],
      [
        "Ġe",
        "very"
      ],
      [
        "Ġ",
        "ent"
      ],
      [
        "Ġd",
        "et"
      ],
      [
        "ak",
        "ing"
      ],
      [
        "Ġd",
        "ata"
      ],
      [
        "Ġse",
        "c"
      ],
      [
        "Ġre",
        "qu"
      ],
      [
        "oc",
        "i"
      ],
      [
        "Ġ",
        "6"
      ],
      [
        "re",
        "n"
      ],
      [
        "Ġ",
        "*"
      ],
      [
        "$",
        "$"
      ],
      [
        "Ġ",
        "ke"
      ],
      [
        "Ġex",
        "t"
      ],
      [
        "Ġa",
        "fter"
      ],
      [
        "ur",
        "al"
      ],
      [
        "Ġe",
        "ach"
      ],
      [
        "Ġin",
        "s"
      ],
      [
        "at",
        "ure"
      ],
      [
        "ro",
        "s"
      ],
      [
        "form",
        "ation"
      ],
      [
        "er",
        "g"
      ],
      [
        "ĠA",
        "r"
      ],
      [
        "Ġf",
        "ollow"
      ],
      [
        "ru",
        "ct"
      ],
      [
        "ĠW",
        "h"
      ],
      [
        "i",
        "x"
      ],
      [
        "Ġyear",
        "s"
      ],
      [
        "a",
        "x"
      ],
      [
        "ist",
        "s"
      ],
      [
        "Ġm",
        "in"
      ],
      [
        "Ġar",
        "t"
      ],
      [
        "st",
        "and"
      ],
      [
        "im",
        "es"
      ],
      [
        "Ġcomp",
        "le"
      ],
      [
        "}",
        "{"
      ],
      [
        "is",
        "m"
      ],
      [
        "Ġb",
        "ack"
      ],
      [
        "Ġm",
        "at"
      ],
      [
        "al",
        "ity"
      ],
      [
        "Ġin",
        "f"
      ],
      [
        "Ġpl",
        "ay"
      ],
      [
        "Ġc",
        "ent"
      ],
      [
        "u",
        "c"
      ],
      [
        "t",
        "y"
      ],
      [
        "Ġd",
        "uring"
      ],
      [
        "T",
        "h"
      ],
      [
        "Ġpro",
        "cess"
      ],
      [
        "rou",
        "p"
      ],
      [
        "n",
        "ess"
      ],
      [
        "Ġb",
        "oth"
      ],
      [
        "in",
        "ce"
      ],
      [
        "Ġres",
        "ult"
      ],
      [
        "c",
        "om"
      ],
      [
        "Ġp",
        "ol"
      ],
      [
        "Ġd",
        "i"
      ],
      [
        "Ġdiffere",
        "nt"
      ],
      [
        "Ġwor",
        "ld"
      ],
      [
        "l",
        "ed"
      ],
      [
        "Ġc",
        "ount"
      ],
      [
        "ĠF",
        "or"
      ],
      [
        "Ġ",
        "ed"
      ],
      [
        "Ġc",
        "re"
      ],
      [
        "Ġprov",
        "id"
      ],
      [
        "i",
        "el"
      ],
      [
        "ar",
        "s"
      ],
      [
        "Ġev",
        "en"
      ],
      [
        "c",
        "er"
      ],
      [
        "Ġl",
        "ong"
      ],
      [
        "Ġg",
        "ra"
      ],
      [
        "Ġm",
        "ed"
      ],
      [
        "Ġsh",
        "ould"
      ],
      [
        "Ġpo",
        "int"
      ],
      [
        "Ġus",
        "ing"
      ],
      [
        "Ġre",
        "f"
      ],
      [
        "Ġpro",
        "g"
      ],
      [
        "Ġl",
        "ook"
      ],
      [
        "ut",
        "e"
      ],
      [
        "Ġ1",
        "0"
      ],
      [
        "Ġw",
        "ay"
      ],
      [
        "ub",
        "lic"
      ],
      [
        "Ġc",
        "ur"
      ],
      [
        "Ġr",
        "ight"
      ],
      [
        "he",
        "m"
      ],
      [
        "Ġpart",
        "ic"
      ],
      [
        "Ġeff",
        "ect"
      ],
      [
        "t",
        "ed"
      ],
      [
        "f",
        "ra"
      ],
      [
        "l",
        "and"
      ],
      [
        "_",
        "{"
      ],
      [
        "ual",
        "ly"
      ],
      [
        "v",
        "ent"
      ],
      [
        "Ġe",
        "ar"
      ],
      [
        "Ġbe",
        "l"
      ],
      [
        "Ġex",
        "pl"
      ],
      [
        "Ġinc",
        "re"
      ],
      [
        "in",
        "ess"
      ],
      [
        "Ġcomm",
        "un"
      ],
      [
        "Ġc",
        "all"
      ],
      [
        "Ġs",
        "he"
      ],
      [
        "ot",
        "her"
      ],
      [
        "in",
        "s"
      ],
      [
        "ion",
        "al"
      ],
      [
        "Ġsa",
        "id"
      ],
      [
        "mer",
        "ic"
      ],
      [
        "ĠR",
        "e"
      ],
      [
        "Ġ",
        "very"
      ],
      [
        "et",
        "s"
      ],
      [
        "Ġen",
        "d"
      ],
      [
        "d",
        "ay"
      ],
      [
        "o",
        "ol"
      ],
      [
        "u",
        "p"
      ],
      [
        "ant",
        "s"
      ],
      [
        "ab",
        "ility"
      ],
      [
        "Ġnum",
        "ber"
      ],
      [
        "i",
        "en"
      ],
      [
        "u",
        "nd"
      ],
      [
        "1",
        "9"
      ],
      [
        "an",
        "c"
      ],
      [
        "Ġbec",
        "ause"
      ],
      [
        "ĠI",
        "f"
      ],
      [
        "Ġa",
        "ut"
      ],
      [
        "Ġle",
        "ad"
      ],
      [
        "Ġo",
        "wn"
      ],
      [
        "Ġth",
        "ose"
      ],
      [
        "an",
        "y"
      ],
      [
        "Ġt",
        "yp"
      ],
      [
        "Ġf",
        "ind"
      ],
      [
        "ar",
        "m"
      ],
      [
        "Ġf",
        "ound"
      ],
      [
        "Ġ",
        "est"
      ],
      [
        "ire",
        "ct"
      ],
      [
        "Ġp",
        "erson"
      ],
      [
        "Ġc",
        "or"
      ],
      [
        "c",
        "on"
      ],
      [
        "t",
        "le"
      ],
      [
        "in",
        "ed"
      ],
      [
        "Ġst",
        "ate"
      ],
      [
        "i",
        "um"
      ],
      [
        "Ġf",
        "am"
      ],
      [
        "d",
        "er"
      ],
      [
        "et",
        "y"
      ],
      [
        "Ġsh",
        "ow"
      ],
      [
        "Ġm",
        "ain"
      ],
      [
        "ĠH",
        "ow"
      ],
      [
        "in",
        "ing"
      ],
      [
        "ĠA",
        "d"
      ],
      [
        "iel",
        "d"
      ],
      [
        "Ġ",
        "7"
      ],
      [
        "en",
        "g"
      ],
      [
        "d",
        "ition"
      ],
      [
        "Ġg",
        "reat"
      ],
      [
        "Ġdes",
        "ign"
      ],
      [
        "n",
        "ce"
      ],
      [
        "it",
        "al"
      ],
      [
        "^",
        "{"
      ],
      [
        "Ġc",
        "ar"
      ],
      [
        "Ġm",
        "em"
      ],
      [
        "a",
        "ir"
      ],
      [
        "Ġp",
        "op"
      ],
      [
        "r",
        "on"
      ],
      [
        "ate",
        "g"
      ],
      [
        "Ġm",
        "ark"
      ],
      [
        "iv",
        "id"
      ],
      [
        "Ġv",
        "is"
      ],
      [
        "e",
        "x"
      ],
      [
        ".",
        ","
      ],
      [
        "ar",
        "ge"
      ],
      [
        "Ġc",
        "our"
      ],
      [
        "id",
        "er"
      ],
      [
        "r",
        "ight"
      ],
      [
        "t",
        "o"
      ],
      [
        "Ġbe",
        "ing"
      ],
      [
        "Ġag",
        "ain"
      ],
      [
        "Ġg",
        "u"
      ],
      [
        "i",
        "vers"
      ],
      [
        "Ġdo",
        "es"
      ],
      [
        "e",
        "red"
      ],
      [
        "ĠC",
        "on"
      ],
      [
        "r",
        "al"
      ],
      [
        "v",
        "ing"
      ],
      [
        "l",
        "ine"
      ],
      [
        "ĠS",
        "p"
      ],
      [
        "Ġm",
        "on"
      ],
      [
        "t",
        "he"
      ],
      [
        "v",
        "en"
      ],
      [
        "re",
        "nt"
      ],
      [
        "Ġf",
        "act"
      ],
      [
        "us",
        "s"
      ],
      [
        "in",
        "c"
      ],
      [
        "Ġ",
        "'"
      ],
      [
        "i",
        "ous"
      ],
      [
        "ĠA",
        "meric"
      ],
      [
        "Ġin",
        "formation"
      ],
      [
        "Ġbe",
        "fore"
      ],
      [
        "Ġimp",
        "ort"
      ],
      [
        "el",
        "s"
      ],
      [
        "as",
        "es"
      ],
      [
        "Ġhe",
        "alth"
      ],
      [
        "Ġp",
        "at"
      ],
      [
        "Ġs",
        "ame"
      ],
      [
        "ew",
        "eb"
      ],
      [
        "Ġfin",
        "eweb"
      ],
      [
        "o",
        "ver"
      ],
      [
        "Ġst",
        "art"
      ],
      [
        "ĠE",
        "x"
      ],
      [
        "Ġm",
        "ade"
      ],
      [
        "Ġ2",
        "0"
      ],
      [
        "Ġn",
        "ow"
      ],
      [
        "u",
        "g"
      ],
      [
        "us",
        "iness"
      ],
      [
        "am",
        "p"
      ],
      [
        "ect",
        "ion"
      ],
      [
        "Ġs",
        "er"
      ],
      [
        "Ġprodu",
        "ct"
      ],
      [
        "a",
        "ve"
      ],
      [
        "Ġo",
        "pt"
      ],
      [
        "Ġsu",
        "pport"
      ],
      [
        "at",
        "her"
      ],
      [
        "Ġcon",
        "st"
      ],
      [
        "as",
        "h"
      ],
      [
        "iv",
        "en"
      ],
      [
        "Ġle",
        "ar"
      ],
      [
        "Ġm",
        "uch"
      ],
      [
        "Ġh",
        "and"
      ],
      [
        "Ġ1",
        "8"
      ],
      [
        "Ġm",
        "et"
      ],
      [
        "iv",
        "ing"
      ],
      [
        "Ġa",
        "v"
      ],
      [
        "iz",
        "ation"
      ],
      [
        "Ġres",
        "p"
      ],
      [
        "v",
        "ed"
      ],
      [
        "Ġinclud",
        "ing"
      ],
      [
        "Ġ",
        "8"
      ],
      [
        "Ġs",
        "l"
      ],
      [
        "Ġh",
        "im"
      ],
      [
        "b",
        "ers"
      ],
      [
        "i",
        "er"
      ],
      [
        "Ġcont",
        "in"
      ],
      [
        "cc",
        "ess"
      ],
      [
        "ros",
        "s"
      ],
      [
        "Ġc",
        "are"
      ],
      [
        "ro",
        "du"
      ],
      [
        "Ġre",
        "t"
      ],
      [
        "Ġall",
        "ow"
      ],
      [
        "im",
        "ate"
      ],
      [
        "Ġg",
        "l"
      ],
      [
        "Ġde",
        "p"
      ],
      [
        "Ġs",
        "k"
      ],
      [
        "1",
        "0"
      ],
      [
        "an",
        "k"
      ],
      [
        "Ġre",
        "ad"
      ],
      [
        "Ġre",
        "al"
      ],
      [
        "ul",
        "l"
      ],
      [
        "al",
        "e"
      ],
      [
        "Ġad",
        "v"
      ],
      [
        "Ġth",
        "ree"
      ],
      [
        "Ġgo",
        "od"
      ],
      [
        "i",
        "o"
      ],
      [
        "m",
        "ath"
      ],
      [
        "n",
        "er"
      ],
      [
        "Ġa",
        "round"
      ],
      [
        "Ġf",
        "il"
      ],
      [
        "Ġd",
        "own"
      ],
      [
        "Ġg",
        "roup"
      ],
      [
        "Ġw",
        "ant"
      ],
      [
        "is",
        "hed"
      ],
      [
        "00",
        "0"
      ],
      [
        "vi",
        "ew"
      ],
      [
        "âĢ",
        "ĵ"
      ],
      [
        "a",
        "red"
      ],
      [
        "c",
        "ent"
      ],
      [
        "Ġd",
        "id"
      ],
      [
        "Ġt",
        "ake"
      ],
      [
        "it",
        "ions"
      ],
      [
        "Ġapp",
        "ro"
      ],
      [
        "Ġp",
        "ract"
      ],
      [
        "t",
        "t"
      ],
      [
        "eth",
        "od"
      ],
      [
        "Ġ",
        "Ċ"
      ],
      [
        "Ġen",
        "g"
      ],
      [
        "Ġw",
        "ater"
      ],
      [
        "Ġpos",
        "s"
      ],
      [
        "Ġv",
        "i"
      ],
      [
        "Ġpro",
        "per"
      ],
      [
        "Ġh",
        "um"
      ],
      [
        "Ġs",
        "om"
      ],
      [
        "ĠN",
        "ew"
      ],
      [
        "ĠA",
        "nd"
      ],
      [
        "ĠS",
        "c"
      ],
      [
        "re",
        "ad"
      ],
      [
        "it",
        "ive"
      ],
      [
        "âĢ",
        "¢"
      ],
      [
        "p",
        "en"
      ],
      [
        "Ġper",
        "form"
      ],
      [
        "Ġp",
        "ower"
      ],
      [
        "Ġp",
        "ot"
      ],
      [
        "Ġcon",
        "f"
      ],
      [
        "Ġ",
        "Q"
      ],
      [
        "Ġpl",
        "an"
      ],
      [
        "}",
        "$"
      ],
      [
        "ust",
        "om"
      ],
      [
        "Ġcl",
        "ass"
      ],
      [
        "Ġch",
        "ild"
      ],
      [
        "Ġb",
        "o"
      ],
      [
        "v",
        "es"
      ],
      [
        "Ġl",
        "it"
      ],
      [
        "Ġe",
        "le"
      ],
      [
        "g",
        "et"
      ],
      [
        "Ġg",
        "row"
      ],
      [
        "if",
        "y"
      ],
      [
        "Ġor",
        "gan"
      ],
      [
        "ro",
        "l"
      ],
      [
        "2",
        "0"
      ],
      [
        "i",
        "red"
      ],
      [
        "ĠS",
        "e"
      ],
      [
        "Ġexam",
        "ple"
      ],
      [
        "Ġfun",
        "ction"
      ],
      [
        "r",
        "ing"
      ],
      [
        "Ġpro",
        "f"
      ],
      [
        "Ġl",
        "ife"
      ],
      [
        "g",
        "g"
      ],
      [
        "a",
        "u"
      ],
      [
        "ĠD",
        "e"
      ],
      [
        "Ġsm",
        "all"
      ],
      [
        "as",
        "on"
      ],
      [
        "Ġst",
        "and"
      ],
      [
        "Ġe",
        "lect"
      ],
      [
        "is",
        "ion"
      ],
      [
        "Ġt",
        "est"
      ],
      [
        "er",
        "ing"
      ],
      [
        "ch",
        "ool"
      ],
      [
        "ĠY",
        "ou"
      ],
      [
        "Ġd",
        "el"
      ],
      [
        "ĠS",
        "h"
      ],
      [
        "w",
        "ay"
      ],
      [
        "Ġ",
        "9"
      ],
      [
        "Ġpro",
        "ble"
      ],
      [
        "Ġunder",
        "stand"
      ],
      [
        "i",
        "k"
      ],
      [
        "a",
        "h"
      ],
      [
        "fra",
        "c"
      ],
      [
        "ir",
        "on"
      ],
      [
        "Ġc",
        "le"
      ],
      [
        "ang",
        "u"
      ],
      [
        "Ġth",
        "ink"
      ],
      [
        "ul",
        "ation"
      ],
      [
        "Ġ",
        "+"
      ],
      [
        "Ġde",
        "m"
      ],
      [
        "ere",
        "st"
      ],
      [
        "Ġ$",
        "\\"
      ],
      [
        "Ġc",
        "ap"
      ],
      [
        "Ġo",
        "per"
      ],
      [
        "Ġb",
        "usiness"
      ],
      [
        "Ġth",
        "ough"
      ],
      [
        "a",
        "j"
      ],
      [
        "l",
        "ess"
      ],
      [
        "s",
        "c"
      ],
      [
        "Ġhe",
        "re"
      ],
      [
        "p",
        "r"
      ],
      [
        "Ġch",
        "ar"
      ],
      [
        "ur",
        "y"
      ],
      [
        "Ġm",
        "ust"
      ],
      [
        "p",
        "ar"
      ],
      [
        "ĠThe",
        "y"
      ],
      [
        "Ġd",
        "on"
      ],
      [
        "ĠI",
        "nd"
      ],
      [
        "ĠC",
        "l"
      ],
      [
        "ou",
        "n"
      ],
      [
        "Ġd",
        "irect"
      ],
      [
        "Ġof",
        "ten"
      ],
      [
        "Ġpro",
        "m"
      ],
      [
        "ĠP",
        "h"
      ],
      [
        "in",
        "al"
      ],
      [
        "p",
        "ort"
      ],
      [
        "Ġsign",
        "ific"
      ],
      [
        "ra",
        "ph"
      ],
      [
        "Ġd",
        "ay"
      ],
      [
        "ak",
        "es"
      ],
      [
        "Ġan",
        "al"
      ],
      [
        "Ġto",
        "p"
      ],
      [
        "o",
        "h"
      ],
      [
        "t",
        "on"
      ],
      [
        "ain",
        "s"
      ],
      [
        "a",
        "pt"
      ],
      [
        "at",
        "or"
      ],
      [
        "Ġre",
        "se"
      ],
      [
        "Ġwith",
        "out"
      ],
      [
        "Ġle",
        "vel"
      ],
      [
        "ial",
        "ly"
      ],
      [
        "es",
        "p"
      ],
      [
        "Ġc",
        "ustom"
      ],
      [
        "Ġgo",
        "ver"
      ],
      [
        "b",
        "s"
      ],
      [
        "ivid",
        "ual"
      ],
      [
        "iv",
        "ity"
      ],
      [
        "a",
        "z"
      ],
      [
        "Ġ",
        "ve"
      ],
      [
        "Ġb",
        "est"
      ],
      [
        "Ġle",
        "g"
      ],
      [
        "Ġ$",
        "$"
      ],
      [
        "Ġ",
        "Z"
      ],
      [
        "pl",
        "es"
      ],
      [
        "at",
        "ic"
      ],
      [
        "Ġm",
        "us"
      ],
      [
        "Ġm",
        "ight"
      ],
      [
        "Ġl",
        "ast"
      ],
      [
        "Th",
        "is"
      ],
      [
        "an",
        "n"
      ],
      [
        "en",
        "se"
      ],
      [
        "Ġe",
        "as"
      ],
      [
        "Ġst",
        "re"
      ],
      [
        "act",
        "er"
      ],
      [
        "p",
        "or"
      ],
      [
        "Ġm",
        "ult"
      ],
      [
        "Ġsu",
        "ccess"
      ],
      [
        "oc",
        "ial"
      ],
      [
        "Ġm",
        "ethod"
      ],
      [
        "Ġwith",
        "in"
      ],
      [
        "v",
        "iron"
      ],
      [
        "os",
        "s"
      ],
      [
        "w",
        "are"
      ],
      [
        "ĠA",
        "t"
      ],
      [
        "d",
        "e"
      ],
      [
        "Ġ",
        "ide"
      ],
      [
        "Ġd",
        "r"
      ],
      [
        "Ġb",
        "ased"
      ],
      [
        "ur",
        "ther"
      ],
      [
        "Ġte",
        "am"
      ],
      [
        "Ġp",
        "ur"
      ],
      [
        "ab",
        "l"
      ],
      [
        "Ġl",
        "arge"
      ],
      [
        "Ġinclud",
        "e"
      ],
      [
        "Ġbe",
        "h"
      ],
      [
        "Ġint",
        "erest"
      ],
      [
        "er",
        "n"
      ],
      [
        "Ġh",
        "ome"
      ],
      [
        "Ġl",
        "ine"
      ],
      [
        "e",
        "k"
      ],
      [
        "Ġh",
        "ist"
      ],
      [
        "Ġc",
        "ult"
      ],
      [
        "Ġ",
        "["
      ],
      [
        "Ġsec",
        "ond"
      ],
      [
        "Ġre",
        "du"
      ],
      [
        ".",
        "\""
      ],
      [
        "am",
        "es"
      ],
      [
        "r",
        "ation"
      ],
      [
        "ĠI",
        "s"
      ],
      [
        "Ġgover",
        "n"
      ],
      [
        "f",
        "er"
      ],
      [
        "Ġqu",
        "est"
      ],
      [
        "Ġind",
        "ividual"
      ],
      [
        "Ġpro",
        "t"
      ],
      [
        "Ġp",
        "ar"
      ],
      [
        "Ġp",
        "ost"
      ],
      [
        "Ġt",
        "er"
      ],
      [
        "Ġst",
        "ill"
      ],
      [
        "Ġpres",
        "ent"
      ],
      [
        "ou",
        "th"
      ],
      [
        "I",
        "I"
      ],
      [
        "Ġp",
        "ublic"
      ],
      [
        "ed",
        "ia"
      ],
      [
        "ut",
        "ions"
      ],
      [
        "Ġl",
        "ist"
      ],
      [
        "ri",
        "pt"
      ],
      [
        "Ġinv",
        "ol"
      ],
      [
        "Ġa",
        "ff"
      ],
      [
        "os",
        "ed"
      ],
      [
        "al",
        "k"
      ],
      [
        "c",
        "ing"
      ],
      [
        "ĠB",
        "y"
      ],
      [
        "erg",
        "y"
      ],
      [
        "ivers",
        "ity"
      ],
      [
        "o",
        "id"
      ],
      [
        "ĠT",
        "e"
      ],
      [
        "if",
        "ied"
      ],
      [
        "Ġpl",
        "ace"
      ],
      [
        "re",
        "en"
      ],
      [
        "oc",
        "us"
      ],
      [
        "cl",
        "us"
      ],
      [
        "Ġrep",
        "res"
      ],
      [
        "Ġvari",
        "ous"
      ],
      [
        "od",
        "y"
      ],
      [
        "p",
        "ut"
      ],
      [
        "Ġe",
        "t"
      ],
      [
        "Ġc",
        "ase"
      ],
      [
        "od",
        "e"
      ],
      [
        "Ġimp",
        "ro"
      ],
      [
        "ord",
        "ing"
      ],
      [
        "Ġbu",
        "ild"
      ],
      [
        "Ġo",
        "cc"
      ],
      [
        "Ġl",
        "aw"
      ],
      [
        "r",
        "an"
      ],
      [
        "in",
        "ation"
      ],
      [
        "*",
        "*"
      ],
      [
        "Ġimport",
        "ant"
      ],
      [
        "Ġis",
        "s"
      ],
      [
        "Ġme",
        "as"
      ],
      [
        "Ġw",
        "rit"
      ],
      [
        "ard",
        "s"
      ],
      [
        "age",
        "ment"
      ],
      [
        "Ġc",
        "he"
      ],
      [
        "or",
        "th"
      ],
      [
        "Ġstud",
        "ents"
      ],
      [
        "Ġpro",
        "ject"
      ],
      [
        "Ġmark",
        "et"
      ],
      [
        "iv",
        "ed"
      ],
      [
        "Ġl",
        "angu"
      ],
      [
        "o",
        "le"
      ],
      [
        "en",
        "cy"
      ],
      [
        "Ġdevelop",
        "ment"
      ],
      [
        "Ġfollow",
        "ing"
      ],
      [
        "ou",
        "se"
      ],
      [
        "Ġl",
        "ess"
      ],
      [
        "Ġb",
        "ook"
      ],
      [
        "ort",
        "s"
      ],
      [
        "Ġen",
        "s"
      ],
      [
        "Ġpot",
        "ential"
      ],
      [
        "Ġ",
        "z"
      ],
      [
        "__",
        "__"
      ],
      [
        "Ġ",
        "."
      ],
      [
        "Ġl",
        "and"
      ],
      [
        "ot",
        "e"
      ],
      [
        "Ġcur",
        "rent"
      ],
      [
        "an",
        "ces"
      ],
      [
        "Ġcons",
        "ider"
      ],
      [
        "iqu",
        "e"
      ],
      [
        "Ġc",
        "ell"
      ],
      [
        "Ġse",
        "ver"
      ],
      [
        "Ġknow",
        "n"
      ],
      [
        "Ġ",
        "i"
      ],
      [
        "Ġre",
        "st"
      ],
      [
        "Ġ",
        "ident"
      ],
      [
        "Ġ",
        "x"
      ],
      [
        "Ġt",
        "em"
      ],
      [
        "ir",
        "c"
      ],
      [
        "ward",
        "s"
      ],
      [
        "ĠThe",
        "se"
      ],
      [
        "ent",
        "ly"
      ],
      [
        "Ġdes",
        "c"
      ],
      [
        "ĠB",
        "ut"
      ],
      [
        "t",
        "a"
      ],
      [
        "o",
        "f"
      ],
      [
        "ol",
        "ution"
      ],
      [
        "ĠThe",
        "re"
      ],
      [
        "e",
        "ad"
      ],
      [
        "l",
        "u"
      ],
      [
        "Ġs",
        "ince"
      ],
      [
        "Ġr",
        "un"
      ],
      [
        "pl",
        "oy"
      ],
      [
        "or",
        "n"
      ],
      [
        "Ġme",
        "an"
      ],
      [
        "Ġav",
        "ail"
      ],
      [
        "Ġn",
        "on"
      ],
      [
        "Ġch",
        "o"
      ],
      [
        "ater",
        "ial"
      ],
      [
        "ent",
        "ion"
      ],
      [
        "Ġb",
        "ra"
      ],
      [
        "Ġor",
        "der"
      ],
      [
        "y",
        "n"
      ],
      [
        "Ġloc",
        "al"
      ],
      [
        "5",
        "0"
      ],
      [
        "Ġo",
        "pen"
      ],
      [
        "m",
        "it"
      ],
      [
        "Ġb",
        "en"
      ],
      [
        "Ġstud",
        "y"
      ],
      [
        "Ġf",
        "ac"
      ],
      [
        "âĢ",
        "Ķ"
      ],
      [
        "er",
        "t"
      ],
      [
        "Ġc",
        "reat"
      ],
      [
        "Ġsp",
        "e"
      ],
      [
        "ĠHow",
        "ever"
      ],
      [
        "w",
        "ays"
      ],
      [
        "Ġin",
        "tern"
      ],
      [
        "m",
        "an"
      ],
      [
        "Ġp",
        "ass"
      ],
      [
        "1",
        "2"
      ],
      [
        "r",
        "ist"
      ],
      [
        "st",
        "er"
      ],
      [
        "ill",
        "ion"
      ],
      [
        "our",
        "ces"
      ],
      [
        "Ġcon",
        "n"
      ],
      [
        "r",
        "ies"
      ],
      [
        "Ġam",
        "ong"
      ],
      [
        "i",
        "or"
      ],
      [
        "i",
        "od"
      ],
      [
        "ĠP",
        "l"
      ],
      [
        "og",
        "raph"
      ],
      [
        "{",
        "\\"
      ],
      [
        "Ġsever",
        "al"
      ],
      [
        "Ġf",
        "ew"
      ],
      [
        "o",
        "int"
      ],
      [
        "il",
        "ar"
      ],
      [
        "Ġl",
        "im"
      ],
      [
        "ĠS",
        "o"
      ],
      [
        "a",
        "pp"
      ],
      [
        "Ġsignific",
        "ant"
      ],
      [
        "m",
        "b"
      ],
      [
        "er",
        "tain"
      ],
      [
        "con",
        "om"
      ],
      [
        "ive",
        "ly"
      ],
      [
        "ot",
        "s"
      ],
      [
        "Ġapp",
        "lic"
      ],
      [
        "Ġacc",
        "ess"
      ],
      [
        "he",
        "re"
      ],
      [
        "ĠE",
        "n"
      ],
      [
        "Ġp",
        "ress"
      ],
      [
        "im",
        "al"
      ],
      [
        "m",
        "e"
      ],
      [
        "Ġt",
        "ri"
      ],
      [
        "Ġan",
        "other"
      ],
      [
        "Ġen",
        "viron"
      ],
      [
        "Ġf",
        "ocus"
      ],
      [
        "Ġf",
        "ree"
      ],
      [
        "Ġf",
        "ield"
      ],
      [
        "Ġd",
        "ue"
      ],
      [
        "ra",
        "y"
      ],
      [
        "Ġcall",
        "ed"
      ],
      [
        "Ġprog",
        "ram"
      ],
      [
        "Ġagain",
        "st"
      ],
      [
        "Ġle",
        "t"
      ],
      [
        "ist",
        "ic"
      ],
      [
        "ent",
        "al"
      ],
      [
        "r",
        "id"
      ],
      [
        "iss",
        "ion"
      ],
      [
        "}",
        "\\"
      ],
      [
        "Ġprov",
        "ide"
      ],
      [
        "Ġch",
        "ang"
      ],
      [
        "Ġ19",
        "9"
      ],
      [
        "Ġare",
        "a"
      ],
      [
        "Ġs",
        "it"
      ],
      [
        "Ġval",
        "ue"
      ],
      [
        "le",
        "x"
      ],
      [
        "iz",
        "ing"
      ],
      [
        "d",
        "s"
      ],
      [
        "Ġ",
        "X"
      ],
      [
        "or",
        "ies"
      ],
      [
        "p",
        "s"
      ],
      [
        "i",
        "ans"
      ],
      [
        "aj",
        "or"
      ],
      [
        "Ġre",
        "ce"
      ],
      [
        "v",
        "al"
      ],
      [
        "Ġg",
        "iven"
      ],
      [
        "Ġor",
        "ig"
      ],
      [
        "Ġint",
        "eg"
      ],
      [
        "Ġed",
        "uc"
      ],
      [
        "Ġcomp",
        "ut"
      ],
      [
        "2",
        "01"
      ],
      [
        "W",
        "h"
      ],
      [
        "Ġstr",
        "ateg"
      ],
      [
        "ĠO",
        "r"
      ],
      [
        "Ġhum",
        "an"
      ],
      [
        "W",
        "e"
      ],
      [
        "w",
        "ork"
      ],
      [
        "o",
        "ad"
      ],
      [
        "m",
        "ed"
      ],
      [
        "Ġinv",
        "est"
      ],
      [
        "Ġcomm",
        "on"
      ],
      [
        "Ġb",
        "as"
      ],
      [
        "m",
        "a"
      ],
      [
        "end",
        "s"
      ],
      [
        "Ġexper",
        "ience"
      ],
      [
        "Ġ1",
        "2"
      ],
      [
        "ight",
        "s"
      ],
      [
        "or",
        "ing"
      ],
      [
        "Ġst",
        "ruct"
      ],
      [
        "Ġan",
        "t"
      ],
      [
        "Ġcont",
        "rol"
      ],
      [
        "ap",
        "e"
      ],
      [
        "Ġavail",
        "able"
      ],
      [
        "Ġbet",
        "ter"
      ],
      [
        "Ġvi",
        "ew"
      ],
      [
        "Ġ1",
        "7"
      ],
      [
        "Ġt",
        "reat"
      ],
      [
        "Ġpartic",
        "ular"
      ],
      [
        "Ġfam",
        "ily"
      ],
      [
        "ra",
        "ft"
      ],
      [
        "Ġsp",
        "ace"
      ],
      [
        "f",
        "or"
      ],
      [
        "i",
        "ents"
      ],
      [
        "ĠAmeric",
        "an"
      ],
      [
        "t",
        "il"
      ],
      [
        "Ġre",
        "le"
      ],
      [
        "Ġind",
        "ust"
      ],
      [
        "ĠL",
        "e"
      ],
      [
        "l",
        "ing"
      ],
      [
        "Ġmod",
        "el"
      ],
      [
        "is",
        "c"
      ],
      [
        "Ġto",
        "o"
      ],
      [
        "om",
        "en"
      ],
      [
        "Ġc",
        "os"
      ],
      [
        "te",
        "xt"
      ],
      [
        "ĠR",
        "es"
      ],
      [
        "Ġc",
        "ost"
      ],
      [
        "Ġf",
        "our"
      ],
      [
        "ĠA",
        "m"
      ],
      [
        "Ġcour",
        "se"
      ],
      [
        "pl",
        "ay"
      ],
      [
        "A",
        "s"
      ],
      [
        "Ġr",
        "is"
      ],
      [
        "Ġch",
        "ange"
      ],
      [
        "ore",
        "d"
      ],
      [
        "op",
        "e"
      ],
      [
        "Ġ1",
        "5"
      ],
      [
        "ib",
        "ility"
      ],
      [
        "Ġob",
        "ject"
      ],
      [
        "il",
        "ities"
      ],
      [
        "re",
        "t"
      ],
      [
        "ag",
        "n"
      ],
      [
        "r",
        "ans"
      ],
      [
        "ab",
        "or"
      ],
      [
        "Ġe",
        "l"
      ],
      [
        "ĠO",
        "n"
      ],
      [
        "Ġadd",
        "ition"
      ],
      [
        "ĠE",
        "u"
      ],
      [
        "Ġsa",
        "f"
      ],
      [
        "Ġde",
        "v"
      ],
      [
        "Ġs",
        "ing"
      ],
      [
        "Ġm",
        "ove"
      ],
      [
        "Ġal",
        "ong"
      ],
      [
        "Ġha",
        "pp"
      ],
      [
        "Ġrepres",
        "ent"
      ],
      [
        "Ġb",
        "re"
      ],
      [
        "Ġsu",
        "pp"
      ],
      [
        "Ġch",
        "all"
      ],
      [
        "n",
        "s"
      ],
      [
        "at",
        "ures"
      ],
      [
        "Ġm",
        "aterial"
      ],
      [
        ")",
        "$"
      ],
      [
        "it",
        "ing"
      ],
      [
        "Ġrep",
        "ort"
      ],
      [
        "Ġre",
        "ally"
      ],
      [
        "o",
        "ot"
      ],
      [
        "h",
        "or"
      ],
      [
        "ĠE",
        "ng"
      ],
      [
        "--",
        "--"
      ],
      [
        "Ġen",
        "ergy"
      ],
      [
        "y",
        "le"
      ],
      [
        "Ġc",
        "al"
      ],
      [
        "Ġob",
        "s"
      ],
      [
        "an",
        "e"
      ],
      [
        "a",
        "ut"
      ],
      [
        "Ġs",
        "ocial"
      ],
      [
        "Ġb",
        "ro"
      ],
      [
        "Ġs",
        "ay"
      ],
      [
        "end",
        "ing"
      ],
      [
        "Ġrese",
        "arch"
      ],
      [
        "pport",
        "un"
      ],
      [
        "ĠC",
        "ol"
      ],
      [
        "at",
        "s"
      ],
      [
        "is",
        "ed"
      ],
      [
        "Ġph",
        "ys"
      ],
      [
        "Ġs",
        "chool"
      ],
      [
        "le",
        "ft"
      ],
      [
        "ĠT",
        "o"
      ],
      [
        "er",
        "al"
      ],
      [
        "S",
        "t"
      ],
      [
        "em",
        "ber"
      ],
      [
        "n",
        "ed"
      ],
      [
        "ra",
        "p"
      ],
      [
        "Ġt",
        "re"
      ],
      [
        "ĠUn",
        "iversity"
      ],
      [
        "Ġl",
        "ow"
      ],
      [
        "Ġpro",
        "b"
      ],
      [
        "e",
        "an"
      ],
      [
        "or",
        "ld"
      ],
      [
        "Ġm",
        "ajor"
      ],
      [
        "ĠI",
        "m"
      ],
      [
        "Ġrel",
        "ations"
      ],
      [
        "olog",
        "ical"
      ],
      [
        "le",
        "ction"
      ],
      [
        "Ġl",
        "ight"
      ],
      [
        "Ġcom",
        "b"
      ],
      [
        "ill",
        "s"
      ],
      [
        "ress",
        "ion"
      ],
      [
        "as",
        "ing"
      ],
      [
        "Ġne",
        "xt"
      ],
      [
        "eth",
        "ing"
      ],
      [
        "Ġst",
        "ep"
      ],
      [
        "ag",
        "ing"
      ],
      [
        "Ġpro",
        "p"
      ],
      [
        "a",
        "im"
      ],
      [
        "Ġac",
        "ross"
      ],
      [
        "o",
        "x"
      ],
      [
        "Ġf",
        "ood"
      ],
      [
        "Ġchar",
        "acter"
      ],
      [
        "Ġl",
        "ater"
      ],
      [
        "Ġke",
        "y"
      ],
      [
        "Ġ",
        ","
      ],
      [
        "Ġf",
        "re"
      ],
      [
        "op",
        "h"
      ],
      [
        "Ġt",
        "imes"
      ],
      [
        "are",
        "nt"
      ],
      [
        "it",
        "her"
      ],
      [
        "pl",
        "ic"
      ],
      [
        "ab",
        "ly"
      ],
      [
        "Ġh",
        "ig"
      ],
      [
        "ver",
        "se"
      ],
      [
        "Ġben",
        "ef"
      ],
      [
        "Ġcos",
        "m"
      ],
      [
        "Ġs",
        "al"
      ],
      [
        "Ġcount",
        "ry"
      ],
      [
        "Ġin",
        "it"
      ],
      [
        "Ġse",
        "em"
      ],
      [
        "Ġear",
        "ly"
      ],
      [
        "Ġc",
        "rit"
      ],
      [
        "Ġe",
        "conom"
      ],
      [
        "Ġn",
        "ame"
      ],
      [
        "Ġab",
        "le"
      ],
      [
        "Ġ",
        "er"
      ],
      [
        "as",
        "ter"
      ],
      [
        "Ġth",
        "ings"
      ],
      [
        "il",
        "it"
      ],
      [
        "Ġgovern",
        "ment"
      ],
      [
        "le",
        "ment"
      ],
      [
        "ĠC",
        "an"
      ],
      [
        "ĠB",
        "l"
      ],
      [
        "Ġun",
        "it"
      ],
      [
        "Ġ",
        "ess"
      ],
      [
        ",",
        "\""
      ],
      [
        "Ġhe",
        "ad"
      ],
      [
        "vi",
        "ous"
      ],
      [
        "er",
        "c"
      ],
      [
        "id",
        "ence"
      ],
      [
        "ut",
        "ure"
      ],
      [
        "end",
        "ed"
      ],
      [
        "Ġsystem",
        "s"
      ],
      [
        "Ġbel",
        "ie"
      ],
      [
        "ĠA",
        "f"
      ],
      [
        "Ġprof",
        "ess"
      ],
      [
        "Ġen",
        "c"
      ],
      [
        "1",
        "8"
      ],
      [
        "i",
        "ate"
      ],
      [
        "Ġev",
        "ent"
      ],
      [
        "Ġt",
        "ru"
      ],
      [
        "at",
        "ch"
      ],
      [
        "Ġme",
        "ans"
      ],
      [
        "Ġm",
        "ov"
      ],
      [
        "id",
        "s"
      ],
      [
        "ub",
        "l"
      ],
      [
        "f",
        "ace"
      ],
      [
        "ĠA",
        "ll"
      ],
      [
        "Ġrec",
        "ord"
      ],
      [
        "Ġper",
        "iod"
      ],
      [
        "Ġc",
        "r"
      ],
      [
        "ys",
        "is"
      ],
      [
        "Ġdisc",
        "uss"
      ],
      [
        "3",
        "0"
      ],
      [
        "a",
        "i"
      ],
      [
        "Ġgo",
        "ing"
      ],
      [
        "Ġke",
        "ep"
      ],
      [
        "Ġcont",
        "rib"
      ],
      [
        "Ġstr",
        "ong"
      ],
      [
        "Ġenviron",
        "ment"
      ],
      [
        "Ġass",
        "oci"
      ],
      [
        "ĠUn",
        "ited"
      ],
      [
        "Ġcom",
        "e"
      ],
      [
        "og",
        "n"
      ],
      [
        "ne",
        "y"
      ],
      [
        "Ġt",
        "erm"
      ],
      [
        "Ġn",
        "ec"
      ],
      [
        "Ġo",
        "pportun"
      ],
      [
        "Ġspec",
        "ial"
      ],
      [
        "Ġsom",
        "ething"
      ],
      [
        "b",
        "y"
      ],
      [
        "Ġo",
        "ld"
      ],
      [
        "u",
        "ment"
      ],
      [
        "Ġposs",
        "ible"
      ],
      [
        "Ġmon",
        "th"
      ],
      [
        "Ġn",
        "et"
      ],
      [
        "ure",
        "d"
      ],
      [
        "Ġun",
        "til"
      ],
      [
        "Ġf",
        "ore"
      ],
      [
        "th",
        "ough"
      ],
      [
        "Ġlit",
        "tle"
      ],
      [
        "om",
        "m"
      ],
      [
        "ff",
        "ic"
      ],
      [
        "I",
        "t"
      ],
      [
        "f",
        "act"
      ],
      [
        "ĠW",
        "hen"
      ],
      [
        "ĠI",
        "nt"
      ],
      [
        "Ġsim",
        "ilar"
      ],
      [
        "1",
        "1"
      ],
      [
        "at",
        "ural"
      ],
      [
        "Ġ",
        "{"
      ],
      [
        "Ġp",
        "ut"
      ],
      [
        "Ġh",
        "ard"
      ],
      [
        "ect",
        "ed"
      ],
      [
        "le",
        "t"
      ],
      [
        "\"",
        "."
      ],
      [
        "A",
        "n"
      ],
      [
        "Ġn",
        "ear"
      ],
      [
        "Ġg",
        "ame"
      ],
      [
        "Ġret",
        "urn"
      ],
      [
        "Ġproble",
        "m"
      ],
      [
        "E",
        "R"
      ],
      [
        "ol",
        "s"
      ],
      [
        "Ġperson",
        "al"
      ],
      [
        "Ġt",
        "ry"
      ],
      [
        "our",
        "ce"
      ],
      [
        "Ġcre",
        "ate"
      ],
      [
        "ic",
        "le"
      ],
      [
        "ĠCh",
        "rist"
      ],
      [
        "g",
        "er"
      ],
      [
        "w",
        "w"
      ],
      [
        "Ġc",
        "ertain"
      ],
      [
        "op",
        "edia"
      ],
      [
        "in",
        "a"
      ],
      [
        "Ġm",
        "ot"
      ],
      [
        "iv",
        "al"
      ],
      [
        "Ġra",
        "d"
      ],
      [
        "Ġal",
        "ways"
      ],
      [
        "Ġfe",
        "el"
      ],
      [
        "Ġest",
        "abl"
      ],
      [
        "id",
        "es"
      ],
      [
        "Ġv",
        "ol"
      ],
      [
        "Ġcon",
        "d"
      ],
      [
        "s",
        "p"
      ],
      [
        "Ġare",
        "as"
      ],
      [
        "ut",
        "es"
      ],
      [
        "Ġbec",
        "ome"
      ],
      [
        "Ġserv",
        "ices"
      ],
      [
        "Ġresp",
        "ons"
      ],
      [
        ".",
        "âĢĿ"
      ],
      [
        "Ġcomple",
        "x"
      ],
      [
        "our",
        "s"
      ],
      [
        "a",
        "per"
      ],
      [
        "ed",
        "u"
      ],
      [
        "Ġph",
        "ot"
      ],
      [
        "Ġ1",
        "1"
      ],
      [
        "ur",
        "s"
      ],
      [
        "c",
        "ul"
      ],
      [
        "y",
        "l"
      ],
      [
        "Ġan",
        "n"
      ],
      [
        "Ġs",
        "um"
      ],
      [
        "Ġwork",
        "ing"
      ],
      [
        "Ġdet",
        "erm"
      ],
      [
        "Ġg",
        "ive"
      ],
      [
        "ĠEu",
        "rop"
      ],
      [
        "Ġf",
        "ull"
      ],
      [
        "Ġh",
        "y"
      ],
      [
        "ap",
        "s"
      ],
      [
        "ĠW",
        "ith"
      ],
      [
        "Ġcon",
        "cer"
      ],
      [
        "is",
        "ing"
      ],
      [
        "Ġto",
        "day"
      ],
      [
        "le",
        "y"
      ],
      [
        "Ġem",
        "ploy"
      ],
      [
        "Ġchild",
        "ren"
      ],
      [
        "du",
        "ct"
      ],
      [
        "ra",
        "g"
      ],
      [
        "Ġle",
        "ft"
      ],
      [
        "Ġd",
        "ig"
      ],
      [
        "led",
        "ge"
      ],
      [
        "I",
        "f"
      ],
      [
        "rodu",
        "ction"
      ],
      [
        ")",
        ";"
      ],
      [
        "Ġl",
        "arg"
      ],
      [
        "Ġwh",
        "y"
      ],
      [
        "Ġresult",
        "s"
      ],
      [
        "ip",
        "le"
      ],
      [
        "Ġa",
        "ir"
      ],
      [
        "Ġc",
        "aus"
      ],
      [
        "Ġw",
        "ar"
      ],
      [
        "ir",
        "d"
      ],
      [
        "/",
        "/"
      ],
      [
        "Ġl",
        "ove"
      ],
      [
        "Ġinf",
        "lu"
      ],
      [
        "s",
        "ide"
      ],
      [
        "Ġon",
        "line"
      ],
      [
        "Ġimp",
        "act"
      ],
      [
        "om",
        "s"
      ],
      [
        "ĠSt",
        "ates"
      ],
      [
        "Ġf",
        "urther"
      ],
      [
        "i",
        "pp"
      ],
      [
        "Ġp",
        "ay"
      ],
      [
        "ab",
        "les"
      ],
      [
        "ac",
        "es"
      ],
      [
        "her",
        "s"
      ],
      [
        "it",
        "le"
      ],
      [
        "Ġ1",
        "6"
      ],
      [
        "fere",
        "nce"
      ],
      [
        "Ġdist",
        "rib"
      ],
      [
        "Ġcontin",
        "u"
      ],
      [
        "ĠA",
        "pp"
      ],
      [
        "Ġd",
        "ays"
      ],
      [
        "Ġm",
        "aking"
      ],
      [
        "Ġwe",
        "ek"
      ],
      [
        "Ġpol",
        "ic"
      ],
      [
        "ic",
        "ation"
      ],
      [
        "ĠC",
        "ent"
      ],
      [
        "m",
        "in"
      ],
      [
        "ĠC",
        "ont"
      ],
      [
        "ĠWh",
        "at"
      ],
      [
        "om",
        "et"
      ],
      [
        "Ġcosm",
        "opedia"
      ],
      [
        "\"",
        ","
      ],
      [
        "ĠB",
        "e"
      ],
      [
        "ra",
        "w"
      ],
      [
        "Ġle",
        "ast"
      ],
      [
        "ĠU",
        "S"
      ],
      [
        "Ġapp",
        "ear"
      ],
      [
        "Ġ",
        "vers"
      ],
      [
        "Ġrem",
        "ain"
      ],
      [
        "am",
        "ple"
      ],
      [
        "a",
        "f"
      ],
      [
        "ra",
        "b"
      ],
      [
        "ĠM",
        "an"
      ],
      [
        "Ġmus",
        "ic"
      ],
      [
        "|",
        "|"
      ],
      [
        "Ġne",
        "ver"
      ],
      [
        "Ġgener",
        "al"
      ],
      [
        "b",
        "e"
      ],
      [
        "Ġex",
        "pect"
      ],
      [
        "Ġproduct",
        "s"
      ],
      [
        "Ġwor",
        "ks"
      ],
      [
        "Ġsh",
        "ort"
      ],
      [
        "Ġres",
        "pect"
      ],
      [
        "ĠCom",
        "m"
      ],
      [
        "âĢ",
        "ľ"
      ],
      [
        "Ġab",
        "ove"
      ],
      [
        "Ġobs",
        "erv"
      ],
      [
        "n",
        "ot"
      ],
      [
        "Ġb",
        "ody"
      ],
      [
        "Ġex",
        "ist"
      ],
      [
        "Ġother",
        "s"
      ],
      [
        "Ġw",
        "in"
      ],
      [
        "Ġspec",
        "ific"
      ],
      [
        "n",
        "ers"
      ],
      [
        "Ġact",
        "iv"
      ],
      [
        "ep",
        "end"
      ],
      [
        "Ġdet",
        "ail"
      ],
      [
        "Ġacc",
        "ount"
      ],
      [
        "Ġpol",
        "it"
      ],
      [
        "2",
        "2"
      ],
      [
        "p",
        "ro"
      ],
      [
        "Ġtechn",
        "ology"
      ],
      [
        "Ġt",
        "urn"
      ],
      [
        "th",
        "ing"
      ],
      [
        "Ġc",
        "oll"
      ],
      [
        "Ġp",
        "ast"
      ],
      [
        "Ġha",
        "ving"
      ],
      [
        "Ġf",
        "uture"
      ],
      [
        "s",
        "w"
      ],
      [
        "Ġgrow",
        "th"
      ],
      [
        "Ġf",
        "ri"
      ],
      [
        "y",
        "m"
      ],
      [
        "our",
        "n"
      ],
      [
        "Ġmain",
        "tain"
      ],
      [
        "Ġl",
        "ib"
      ],
      [
        "Ġm",
        "illion"
      ],
      [
        "ĠJ",
        "oh"
      ],
      [
        "i",
        "ver"
      ],
      [
        "Ġcomp",
        "any"
      ],
      [
        "Ġpr",
        "im"
      ],
      [
        "Ġst",
        "at"
      ],
      [
        "Ġro",
        "le"
      ],
      [
        "Ġun",
        "ique"
      ],
      [
        "Ġm",
        "ar"
      ],
      [
        "ct",
        "ions"
      ],
      [
        "Ġbe",
        "g"
      ],
      [
        "Ġoff",
        "er"
      ],
      [
        "ar",
        "ing"
      ],
      [
        "Ġto",
        "get"
      ],
      [
        "e",
        "e"
      ],
      [
        "ide",
        "o"
      ],
      [
        "Ġtra",
        "dition"
      ],
      [
        "r",
        "m"
      ],
      [
        "Ġ201",
        "2"
      ],
      [
        "Ġtoget",
        "her"
      ],
      [
        "A",
        "T"
      ],
      [
        "on",
        "st"
      ],
      [
        "et",
        "ic"
      ],
      [
        "us",
        "h"
      ],
      [
        "ĠR",
        "ep"
      ],
      [
        "Ġnec",
        "ess"
      ],
      [
        "g",
        "en"
      ],
      [
        "Ġcomp",
        "et"
      ],
      [
        "Ġqu",
        "ality"
      ],
      [
        "Ġc",
        "irc"
      ],
      [
        "ien",
        "ces"
      ],
      [
        "os",
        "p"
      ],
      [
        "Ġsu",
        "gg"
      ],
      [
        "Ġsugg",
        "est"
      ],
      [
        "Ġcommun",
        "ity"
      ],
      [
        "Ġf",
        "und"
      ],
      [
        "Ġm",
        "ass"
      ],
      [
        "as",
        "k"
      ],
      [
        "Ġserv",
        "ice"
      ],
      [
        "Ġrequ",
        "ire"
      ],
      [
        "Ġpoint",
        "s"
      ],
      [
        "Ã",
        "©"
      ],
      [
        "clus",
        "ion"
      ],
      [
        "ĠA",
        "p"
      ],
      [
        "Ġchall",
        "eng"
      ],
      [
        "Ġcomple",
        "te"
      ],
      [
        "Ġmem",
        "bers"
      ],
      [
        "s",
        "elf"
      ],
      [
        "an",
        "ced"
      ],
      [
        "1",
        "3"
      ],
      [
        "re",
        "l"
      ],
      [
        "ĠS",
        "he"
      ],
      [
        "Ġso",
        "ft"
      ],
      [
        "Ġem",
        "b"
      ],
      [
        "ob",
        "al"
      ],
      [
        ",",
        "âĢĿ"
      ],
      [
        "Ġf",
        "ar"
      ],
      [
        "at",
        "ors"
      ],
      [
        "A",
        "N"
      ],
      [
        "ĠIn",
        "st"
      ],
      [
        "n",
        "ces"
      ],
      [
        "ud",
        "e"
      ],
      [
        "s",
        "h"
      ],
      [
        "ĠA",
        "b"
      ],
      [
        "Ġan",
        "im"
      ],
      [
        "Ġsing",
        "le"
      ],
      [
        "on",
        "es"
      ],
      [
        "Ġreg",
        "ard"
      ],
      [
        "Ġneed",
        "s"
      ],
      [
        "A",
        "S"
      ],
      [
        "ac",
        "y"
      ],
      [
        "1",
        "4"
      ],
      [
        "a",
        "e"
      ],
      [
        "Ġs",
        "ize"
      ],
      [
        "Ġc",
        "ity"
      ],
      [
        "Ġadd",
        "ress"
      ],
      [
        "Ġl",
        "og"
      ],
      [
        "ly",
        "ing"
      ],
      [
        "2",
        "00"
      ],
      [
        "and",
        "er"
      ],
      [
        "ver",
        "age"
      ],
      [
        "Ġwhe",
        "ther"
      ],
      [
        "Ġne",
        "g"
      ],
      [
        "Ġb",
        "ig"
      ],
      [
        "ch",
        "ie"
      ],
      [
        "Ġas",
        "k"
      ],
      [
        "ĠO",
        "ne"
      ],
      [
        "Ġoff",
        "ic"
      ],
      [
        "Ġcond",
        "itions"
      ],
      [
        "ĠG",
        "en"
      ],
      [
        "Ġlear",
        "ning"
      ],
      [
        "Ġ3",
        "0"
      ],
      [
        "Ġtra",
        "vel"
      ],
      [
        "Ġlangu",
        "age"
      ],
      [
        "'",
        "re"
      ],
      [
        "â",
        "Ī"
      ],
      [
        "ro",
        "ll"
      ],
      [
        "al",
        "f"
      ],
      [
        "Ġtyp",
        "e"
      ],
      [
        "Ġunderstand",
        "ing"
      ],
      [
        "Ġcent",
        "ury"
      ],
      [
        "Ġ",
        "..."
      ],
      [
        "ct",
        "or"
      ],
      [
        "Ġen",
        "h"
      ],
      [
        "ific",
        "ation"
      ],
      [
        "ĠS",
        "u"
      ],
      [
        "ĠF",
        "r"
      ],
      [
        "Ġte",
        "xt"
      ],
      [
        "Ġ",
        "}"
      ],
      [
        "ĠT",
        "ra"
      ],
      [
        "Ġcle",
        "ar"
      ],
      [
        "e",
        "y"
      ],
      [
        "Ġp",
        "red"
      ],
      [
        "Ġpop",
        "ulation"
      ],
      [
        "Ġdesc",
        "rib"
      ],
      [
        "Ġper",
        "cent"
      ],
      [
        "Ġa",
        "way"
      ],
      [
        "ĠIn",
        "tern"
      ],
      [
        "Ġdif",
        "f"
      ],
      [
        "Ġrelations",
        "hip"
      ],
      [
        "ĠP",
        "r"
      ],
      [
        "Ġ1",
        "4"
      ],
      [
        "##",
        "#"
      ],
      [
        "Ġbeh",
        "av"
      ],
      [
        "ĠG",
        "od"
      ],
      [
        "m",
        "ber"
      ],
      [
        "Ġcl",
        "ose"
      ],
      [
        "1",
        "5"
      ],
      [
        "r",
        "ate"
      ],
      [
        "r",
        "ated"
      ],
      [
        "ak",
        "en"
      ],
      [
        "Ġcl",
        "aim"
      ],
      [
        "in",
        "ary"
      ],
      [
        "n",
        "ov"
      ],
      [
        "s",
        "et"
      ],
      [
        "Ġthrough",
        "out"
      ],
      [
        "Ġb",
        "it"
      ],
      [
        "Ġcons",
        "um"
      ],
      [
        "1",
        "6"
      ],
      [
        "he",
        "t"
      ],
      [
        "Ġs",
        "elf"
      ],
      [
        "Ġ",
        "Â"
      ],
      [
        "Ġn",
        "atural"
      ],
      [
        "A",
        "l"
      ],
      [
        "ĠA",
        "g"
      ],
      [
        "un",
        "e"
      ],
      [
        "ot",
        "t"
      ],
      [
        "ĠM",
        "ay"
      ],
      [
        "pt",
        "ion"
      ],
      [
        "at",
        "ives"
      ],
      [
        "Ġsu",
        "re"
      ],
      [
        "Ġb",
        "i"
      ],
      [
        "v",
        "ant"
      ],
      [
        "Ġto",
        "wards"
      ],
      [
        "i",
        "res"
      ],
      [
        "Ġbel",
        "ow"
      ],
      [
        "Ġfil",
        "m"
      ],
      [
        "iqu",
        "es"
      ],
      [
        "Ġimpro",
        "ve"
      ],
      [
        "Ġs",
        "at"
      ],
      [
        "Ġeduc",
        "ation"
      ],
      [
        "i",
        "ation"
      ],
      [
        "Ġl",
        "a"
      ],
      [
        "Ġiss",
        "ues"
      ],
      [
        "Ġwe",
        "bs"
      ],
      [
        "id",
        "d"
      ],
      [
        "Ġmod",
        "ern"
      ],
      [
        "Ġf",
        "ail"
      ],
      [
        "ow",
        "s"
      ],
      [
        "Ġaut",
        "hor"
      ],
      [
        "Ġess",
        "ential"
      ],
      [
        "Ġ",
        ":"
      ],
      [
        "am",
        "b"
      ],
      [
        "t",
        "ies"
      ],
      [
        "Ġcomp",
        "on"
      ],
      [
        "Ġto",
        "t"
      ],
      [
        "il",
        "t"
      ],
      [
        "Ġsol",
        "ution"
      ],
      [
        "ĠE",
        "m"
      ],
      [
        "2",
        "5"
      ],
      [
        ":",
        "//"
      ],
      [
        "Ġr",
        "ange"
      ],
      [
        "Ġperform",
        "ance"
      ],
      [
        "Ġs",
        "ens"
      ],
      [
        "Ġe",
        "ither"
      ],
      [
        "ĠM",
        "ar"
      ],
      [
        "her",
        "n"
      ],
      [
        "ĠM",
        "ed"
      ],
      [
        "Ġcont",
        "ain"
      ],
      [
        "ĠSt",
        "ud"
      ],
      [
        "Ġs",
        "ite"
      ],
      [
        "Ġcons",
        "ist"
      ],
      [
        "Ġd",
        "om"
      ],
      [
        "Ġme",
        "et"
      ],
      [
        "ist",
        "ance"
      ],
      [
        "ĠN",
        "ational"
      ],
      [
        "Ġen",
        "ough"
      ],
      [
        "Ġprodu",
        "ction"
      ],
      [
        "at",
        "ory"
      ],
      [
        "Ġcon",
        "cept"
      ],
      [
        "and",
        "s"
      ],
      [
        "Ġser",
        "ies"
      ],
      [
        "Ġthough",
        "t"
      ],
      [
        "ell",
        "ing"
      ],
      [
        "f",
        "l"
      ],
      [
        "Ġs",
        "w"
      ],
      [
        "ĠB",
        "rit"
      ],
      [
        "ĠCom",
        "p"
      ],
      [
        "Ġindust",
        "ry"
      ],
      [
        "Ġev",
        "ents"
      ],
      [
        "Ġnum",
        "bers"
      ],
      [
        "c",
        "hes"
      ],
      [
        "Ġ",
        "/"
      ],
      [
        "Ġa",
        "ge"
      ],
      [
        "ĠE",
        "ar"
      ],
      [
        "ĠC",
        "ar"
      ],
      [
        "Ġhig",
        "her"
      ],
      [
        "ric",
        "t"
      ],
      [
        "er",
        "y"
      ],
      [
        "Ġc",
        "amp"
      ],
      [
        "Ġhist",
        "ory"
      ],
      [
        "ec",
        "ially"
      ],
      [
        "Ġp",
        "ubl"
      ],
      [
        "b",
        "an"
      ],
      [
        "Ġas",
        "pect"
      ],
      [
        "le",
        "ase"
      ],
      [
        "Ġl",
        "ot"
      ],
      [
        "Ġl",
        "ay"
      ],
      [
        "Ġval",
        "ues"
      ],
      [
        "Ġs",
        "ays"
      ],
      [
        "ch",
        "an"
      ],
      [
        "Ġind",
        "ic"
      ],
      [
        "Ġre",
        "view"
      ],
      [
        "Ġp",
        "ain"
      ],
      [
        "1",
        "7"
      ],
      [
        "b",
        "ack"
      ],
      [
        "Ġs",
        "ide"
      ],
      [
        "ar",
        "ies"
      ],
      [
        "Ġn",
        "orm"
      ],
      [
        "re",
        "c"
      ],
      [
        "Ġproper",
        "ty"
      ],
      [
        "e",
        "xt"
      ],
      [
        "r",
        "ant"
      ],
      [
        "Ġknow",
        "ledge"
      ],
      [
        "e",
        "ed"
      ],
      [
        "Ġd",
        "oc"
      ],
      [
        "Ġm",
        "en"
      ],
      [
        "Ġam",
        "ount"
      ],
      [
        "Ġquest",
        "ion"
      ],
      [
        "Ġman",
        "agement"
      ],
      [
        "Ġcol",
        "lect"
      ],
      [
        "F",
        "or"
      ],
      [
        "um",
        "e"
      ],
      [
        "ad",
        "em"
      ],
      [
        "Ġh",
        "old"
      ],
      [
        "ĠAs",
        "s"
      ],
      [
        "ĠW",
        "ar"
      ],
      [
        "ip",
        "s"
      ],
      [
        "Ġs",
        "ound"
      ],
      [
        "Ġter",
        "ms"
      ],
      [
        "Ġa",
        "chie"
      ],
      [
        "el",
        "ves"
      ],
      [
        "if",
        "t"
      ],
      [
        "Ġ1",
        "3"
      ],
      [
        "Ġover",
        "all"
      ],
      [
        "imate",
        "ly"
      ],
      [
        "Ġar",
        "g"
      ],
      [
        "Ġpress",
        "ure"
      ],
      [
        "Ġeff",
        "ic"
      ],
      [
        "Ġ",
        "|"
      ],
      [
        "le",
        "g"
      ],
      [
        "Ġan",
        "sw"
      ],
      [
        "ĠL",
        "et"
      ],
      [
        "Ġr",
        "ate"
      ],
      [
        "eng",
        "th"
      ],
      [
        "Ġappro",
        "ach"
      ],
      [
        "is",
        "on"
      ],
      [
        "ĠW",
        "orld"
      ],
      [
        "Ġtem",
        "per"
      ],
      [
        "ĠF",
        "l"
      ],
      [
        "Ġpr",
        "inc"
      ],
      [
        "E",
        "S"
      ],
      [
        "Ġa",
        "ud"
      ],
      [
        "Ġimp",
        "lement"
      ],
      [
        "ic",
        "ult"
      ],
      [
        "om",
        "es"
      ],
      [
        "Ġhow",
        "ever"
      ],
      [
        "Ġm",
        "akes"
      ],
      [
        "ĠN",
        "o"
      ],
      [
        "l",
        "er"
      ],
      [
        "Ġbec",
        "ame"
      ],
      [
        "Ġele",
        "ments"
      ],
      [
        "ĠC",
        "ons"
      ],
      [
        "Ġche",
        "ck"
      ],
      [
        "Ġpartic",
        "ip"
      ],
      [
        "is",
        "es"
      ],
      [
        "ĠC",
        "al"
      ],
      [
        "um",
        "p"
      ],
      [
        "ĠTh",
        "at"
      ],
      [
        "ĠM",
        "us"
      ],
      [
        "om",
        "an"
      ],
      [
        "ul",
        "ations"
      ],
      [
        "oll",
        "o"
      ],
      [
        "$",
        "."
      ],
      [
        "m",
        "ost"
      ],
      [
        "u",
        "ation"
      ],
      [
        "Ġw",
        "omen"
      ],
      [
        "Ġw",
        "r"
      ],
      [
        "p",
        "art"
      ],
      [
        "r",
        "or"
      ],
      [
        "se",
        "qu"
      ],
      [
        "av",
        "or"
      ],
      [
        "Ġtra",
        "ining"
      ],
      [
        "esp",
        "ecially"
      ],
      [
        "8",
        "0"
      ],
      [
        "Ġst",
        "ates"
      ],
      [
        "ac",
        "ed"
      ],
      [
        "Ġm",
        "om"
      ],
      [
        "Ġrec",
        "ogn"
      ],
      [
        "read",
        "y"
      ],
      [
        "ill",
        "ed"
      ],
      [
        "act",
        "ion"
      ],
      [
        "Ġar",
        "r"
      ],
      [
        "Ġfe",
        "atures"
      ],
      [
        "u",
        "fact"
      ],
      [
        "Ġs",
        "oci"
      ],
      [
        "Ġr",
        "ather"
      ],
      [
        "Ġstand",
        "ard"
      ],
      [
        "ĠâĢ",
        "ĺ"
      ],
      [
        "w",
        "h"
      ],
      [
        "Ġg",
        "ot"
      ],
      [
        "re",
        "ct"
      ],
      [
        "c",
        "ial"
      ],
      [
        "ist",
        "ics"
      ],
      [
        "Ġanal",
        "ysis"
      ],
      [
        "Ġm",
        "ath"
      ],
      [
        "Ġl",
        "ive"
      ],
      [
        "ĠC",
        "o"
      ],
      [
        "Ġrel",
        "ated"
      ],
      [
        "Ġassoci",
        "ated"
      ],
      [
        "Ġf",
        "ive"
      ],
      [
        "Ġsur",
        "face"
      ],
      [
        "at",
        "form"
      ],
      [
        "Ġo",
        "il"
      ],
      [
        "ĠN",
        "orth"
      ],
      [
        "one",
        "y"
      ],
      [
        "Ġb",
        "r"
      ],
      [
        "Ġse",
        "lect"
      ],
      [
        "ru",
        "ction"
      ],
      [
        "Ġmed",
        "ia"
      ],
      [
        "Ġoff",
        "ers"
      ],
      [
        "en",
        "n"
      ],
      [
        "Ġj",
        "ob"
      ],
      [
        "Ġpop",
        "ular"
      ],
      [
        "Ġchang",
        "es"
      ],
      [
        "Ġdis",
        "e"
      ],
      [
        "ĠA",
        "ng"
      ],
      [
        "ur",
        "ity"
      ],
      [
        "un",
        "g"
      ],
      [
        "Ġ",
        "ill"
      ],
      [
        "op",
        "s"
      ],
      [
        "Ġpre",
        "vious"
      ],
      [
        "Ġse",
        "ason"
      ],
      [
        "h",
        "ib"
      ],
      [
        "ens",
        "ive"
      ],
      [
        "Ġpr",
        "iv"
      ],
      [
        "Ġpos",
        "itive"
      ],
      [
        "4",
        "0"
      ],
      [
        "T",
        "o"
      ],
      [
        "Ġus",
        "ually"
      ],
      [
        "Ġ",
        "<"
      ],
      [
        "Ġv",
        "ideo"
      ],
      [
        "ĠA",
        "lex"
      ],
      [
        "Ġcont",
        "ent"
      ],
      [
        "Ġprovid",
        "ed"
      ],
      [
        "Ġcomput",
        "er"
      ],
      [
        "Ġsu",
        "per"
      ],
      [
        "c",
        "le"
      ],
      [
        "Ġl",
        "ower"
      ],
      [
        "Ġacc",
        "ording"
      ],
      [
        "E",
        "x"
      ],
      [
        "u",
        "le"
      ],
      [
        "}",
        "}"
      ],
      [
        "en",
        "e"
      ],
      [
        "Ġ1",
        "00"
      ],
      [
        "Ġsub",
        "st"
      ],
      [
        "Ġf",
        "r"
      ],
      [
        "Ġm",
        "ind"
      ],
      [
        "Ġd",
        "one"
      ],
      [
        "Ġst",
        "ory"
      ],
      [
        "Ġyou",
        "ng"
      ],
      [
        "Ġal",
        "ready"
      ],
      [
        "ide",
        "red"
      ],
      [
        "ĠWh",
        "ile"
      ],
      [
        "Ġlook",
        "ing"
      ],
      [
        "d",
        "ing"
      ],
      [
        "il",
        "os"
      ],
      [
        "ful",
        "ly"
      ],
      [
        "Ġp",
        "ack"
      ],
      [
        "ĠS",
        "ome"
      ],
      [
        "t",
        "ime"
      ],
      [
        "ish",
        "ing"
      ],
      [
        "Ġprovid",
        "es"
      ],
      [
        "Ġc",
        "ode"
      ],
      [
        "ear",
        "ch"
      ],
      [
        "Ġmult",
        "iple"
      ],
      [
        "Ġg",
        "e"
      ],
      [
        "I",
        "N"
      ],
      [
        "Ġ",
        "ver"
      ],
      [
        "ra",
        "ms"
      ],
      [
        "it",
        "es"
      ],
      [
        "Ġre",
        "ason"
      ],
      [
        "Ġn",
        "ational"
      ],
      [
        "Ġk",
        "ind"
      ],
      [
        "ĠĊ",
        "ĠĊ"
      ],
      [
        "Ġintern",
        "ational"
      ],
      [
        "Ġcom",
        "es"
      ],
      [
        "Ġcont",
        "act"
      ],
      [
        "Ġ",
        "especially"
      ],
      [
        "it",
        "ch"
      ],
      [
        "Ġe",
        "ver"
      ],
      [
        "ĠA",
        "ust"
      ],
      [
        "Ġfam",
        "il"
      ],
      [
        "et",
        "er"
      ],
      [
        "Ġon",
        "ce"
      ],
      [
        "am",
        "s"
      ],
      [
        "Ġse",
        "en"
      ],
      [
        "Ġet",
        "c"
      ],
      [
        "ĠM",
        "ore"
      ],
      [
        "ri",
        "or"
      ],
      [
        "ĠQ",
        "u"
      ],
      [
        "Ġfre",
        "qu"
      ],
      [
        "C",
        "h"
      ],
      [
        "ate",
        "ly"
      ],
      [
        "Ġpos",
        "ition"
      ],
      [
        "f",
        "ect"
      ],
      [
        "on",
        "y"
      ],
      [
        "Ġb",
        "ase"
      ],
      [
        "il",
        "es"
      ],
      [
        "Ġp",
        "ers"
      ],
      [
        "Ġy",
        "et"
      ],
      [
        "Ġ2",
        "5"
      ],
      [
        "Ġproble",
        "ms"
      ],
      [
        "ĠJoh",
        "n"
      ],
      [
        "es",
        "c"
      ],
      [
        "Ġres",
        "ources"
      ],
      [
        "at",
        "t"
      ],
      [
        "Ġf",
        "it"
      ],
      [
        "(",
        "\\"
      ],
      [
        "Ġ",
        ">"
      ],
      [
        "Ġreg",
        "ion"
      ],
      [
        "Ġincre",
        "ase"
      ],
      [
        "Ġquest",
        "ions"
      ],
      [
        "Ġse",
        "par"
      ],
      [
        "au",
        "gh"
      ],
      [
        "Ġtot",
        "al"
      ],
      [
        "g",
        "or"
      ],
      [
        "Ġdo",
        "ing"
      ],
      [
        "c",
        "hed"
      ],
      [
        "Ġh",
        "ouse"
      ],
      [
        "e",
        "al"
      ],
      [
        "Ġm",
        "or"
      ],
      [
        "Ġim",
        "m"
      ],
      [
        "Ġsc",
        "ient"
      ],
      [
        "Ġcomm",
        "it"
      ],
      [
        "Ġde",
        "ath"
      ],
      [
        "Ġwor",
        "ds"
      ],
      [
        "Ġrequ",
        "ired"
      ],
      [
        "Ġde",
        "ep"
      ],
      [
        "Ġcons",
        "idered"
      ],
      [
        "A",
        "R"
      ],
      [
        "Ġtyp",
        "es"
      ],
      [
        "o",
        "ber"
      ],
      [
        "Ġf",
        "all"
      ],
      [
        "ĠA",
        "fter"
      ],
      [
        "Ġup",
        "on"
      ],
      [
        "Ġmethod",
        "s"
      ],
      [
        "Ġ",
        "ut"
      ],
      [
        "ĠS",
        "y"
      ],
      [
        "Ġcomp",
        "an"
      ],
      [
        "Ġab",
        "s"
      ],
      [
        "Ġpre",
        "vent"
      ],
      [
        "ĠAr",
        "t"
      ],
      [
        "Ġlevel",
        "s"
      ],
      [
        "Ġris",
        "k"
      ],
      [
        "s",
        "y"
      ],
      [
        "ed",
        "s"
      ],
      [
        "Ġind",
        "epend"
      ],
      [
        "Ġgroup",
        "s"
      ],
      [
        "e",
        "v"
      ],
      [
        "Ġbuild",
        "ing"
      ],
      [
        "Ġmeas",
        "ure"
      ],
      [
        "l",
        "ish"
      ],
      [
        "Ġc",
        "op"
      ],
      [
        "Ġactiv",
        "ities"
      ],
      [
        "Ġde",
        "g"
      ],
      [
        "Ġs",
        "qu"
      ],
      [
        "Ġpre",
        "c"
      ],
      [
        "anc",
        "ial"
      ],
      [
        "at",
        "ter"
      ],
      [
        "Ġl",
        "o"
      ],
      [
        "2",
        "1"
      ],
      [
        "ir",
        "m"
      ],
      [
        "Ġsim",
        "ple"
      ],
      [
        "Ġconn",
        "ect"
      ],
      [
        "Ġp",
        "ort"
      ],
      [
        "Ġo",
        "pp"
      ],
      [
        "Ġw",
        "ide"
      ],
      [
        "ĠA",
        "c"
      ],
      [
        "Ġg",
        "ain"
      ],
      [
        "Ġorig",
        "inal"
      ],
      [
        "ol",
        "ic"
      ],
      [
        "Ġus",
        "er"
      ],
      [
        "ĠAf",
        "ric"
      ],
      [
        "Ġbeg",
        "in"
      ],
      [
        "j",
        "oy"
      ],
      [
        "ĠAp",
        "ollo"
      ],
      [
        "Ġgl",
        "obal"
      ],
      [
        "Ġw",
        "ind"
      ],
      [
        "ar",
        "r"
      ],
      [
        "Ġd",
        "er"
      ],
      [
        "Ġt",
        "ax"
      ],
      [
        "Ġc",
        "ru"
      ],
      [
        "=",
        "\\"
      ],
      [
        "or",
        "g"
      ],
      [
        "Ġsh",
        "are"
      ],
      [
        "ĠâĢ",
        "Ķ"
      ],
      [
        "Ġtechn",
        "iques"
      ],
      [
        "stand",
        "ing"
      ],
      [
        "Ġeng",
        "ine"
      ],
      [
        "z",
        "e"
      ],
      [
        "on",
        "se"
      ],
      [
        "im",
        "um"
      ],
      [
        "Ġ201",
        "3"
      ],
      [
        "Ġw",
        "a"
      ],
      [
        "em",
        "pt"
      ],
      [
        "Ġqu",
        "ick"
      ],
      [
        "6",
        "0"
      ],
      [
        "er",
        "ous"
      ],
      [
        "med",
        "iate"
      ],
      [
        "c",
        "o"
      ],
      [
        "l",
        "ike"
      ],
      [
        "Ġm",
        "ax"
      ],
      [
        "Ġthe",
        "ory"
      ],
      [
        "ic",
        "les"
      ],
      [
        "Ġfin",
        "al"
      ],
      [
        "iz",
        "ations"
      ],
      [
        "Ġcell",
        "s"
      ],
      [
        ")",
        ":"
      ],
      [
        "Ġh",
        "ours"
      ],
      [
        "Ġincre",
        "asing"
      ],
      [
        "Ġdiff",
        "icult"
      ],
      [
        "f",
        "ort"
      ],
      [
        "Ġrec",
        "ent"
      ],
      [
        "Ġindividual",
        "s"
      ],
      [
        "b",
        "on"
      ],
      [
        "b",
        "ased"
      ],
      [
        "Ġp",
        "aper"
      ],
      [
        "Ġlear",
        "n"
      ],
      [
        "Ġtradition",
        "al"
      ],
      [
        "Ġc",
        "ame"
      ],
      [
        "Ġphys",
        "ical"
      ],
      [
        "Ġl",
        "oss"
      ],
      [
        "The",
        "re"
      ],
      [
        "Ġcount",
        "ries"
      ],
      [
        "ic",
        "ro"
      ],
      [
        "Ġth",
        "ing"
      ],
      [
        "Ġeas",
        "y"
      ],
      [
        "u",
        "ck"
      ],
      [
        "Ġc",
        "ases"
      ],
      [
        "Ġhist",
        "or"
      ],
      [
        "Ġallow",
        "s"
      ],
      [
        "Ġb",
        "al"
      ],
      [
        "av",
        "es"
      ],
      [
        "ig",
        "ure"
      ],
      [
        "Ġreg",
        "ular"
      ],
      [
        "o",
        "on"
      ],
      [
        "t",
        "ers"
      ],
      [
        "Ġin",
        "nov"
      ],
      [
        "Ġh",
        "alf"
      ],
      [
        "Ġincre",
        "ased"
      ],
      [
        "ag",
        "ed"
      ],
      [
        "Ġ-",
        "-"
      ],
      [
        "Ġcle",
        "an"
      ],
      [
        "Ġleg",
        "al"
      ],
      [
        "2",
        "3"
      ],
      [
        "Y",
        "ou"
      ],
      [
        "Ġtreat",
        "ment"
      ],
      [
        "Ġe",
        "y"
      ],
      [
        "Ġtru",
        "e"
      ],
      [
        "Ġocc",
        "ur"
      ],
      [
        "Ġc",
        "ut"
      ],
      [
        "is",
        "ions"
      ],
      [
        "ĠS",
        "ch"
      ],
      [
        "anc",
        "ing"
      ],
      [
        "Ġopportun",
        "ities"
      ],
      [
        "Ġf",
        "ost"
      ],
      [
        "ĠA",
        "rab"
      ],
      [
        "Ġvis",
        "it"
      ],
      [
        "Ġnet",
        "work"
      ],
      [
        "Ġc",
        "e"
      ],
      [
        "Ġpract",
        "ice"
      ],
      [
        "Ġw",
        "ays"
      ],
      [
        "Ġ19",
        "7"
      ],
      [
        "Ġspec",
        "ies"
      ],
      [
        "Ġpract",
        "ices"
      ],
      [
        "b",
        "o"
      ],
      [
        "os",
        "ing"
      ],
      [
        "b",
        "it"
      ],
      [
        "g",
        "o"
      ],
      [
        "en",
        "ces"
      ],
      [
        "Ġr",
        "out"
      ],
      [
        "Ġpl",
        "atform"
      ],
      [
        "Ġexper",
        "im"
      ],
      [
        "Ġsk",
        "ills"
      ],
      [
        "Ġens",
        "ure"
      ],
      [
        "Ġent",
        "ire"
      ],
      [
        "ac",
        "hes"
      ],
      [
        "ĠY",
        "ork"
      ],
      [
        "o",
        "or"
      ],
      [
        "Ġb",
        "ound"
      ],
      [
        "Ġse",
        "arch"
      ],
      [
        "Ġprovid",
        "ing"
      ],
      [
        "ify",
        "ing"
      ],
      [
        "Ġstrateg",
        "ies"
      ],
      [
        "ĠG",
        "u"
      ],
      [
        "arg",
        "et"
      ],
      [
        "Ġdem",
        "onst"
      ],
      [
        "Ġhe",
        "art"
      ],
      [
        "fere",
        "nces"
      ],
      [
        "Ġp",
        "arent"
      ],
      [
        "ĠG",
        "e"
      ],
      [
        "ove",
        "red"
      ],
      [
        "Ġright",
        "s"
      ],
      [
        "ĠU",
        "nder"
      ],
      [
        "Ġwho",
        "le"
      ],
      [
        "Ġlike",
        "ly"
      ],
      [
        "hen",
        "s"
      ],
      [
        "or",
        "por"
      ],
      [
        "ĠR",
        "eg"
      ],
      [
        "Ġdig",
        "ital"
      ],
      [
        ".",
        ")"
      ],
      [
        "Ġs",
        "ix"
      ],
      [
        "Ġto",
        "ok"
      ],
      [
        "ĠP",
        "er"
      ],
      [
        "Ġsub",
        "ject"
      ],
      [
        "b",
        "all"
      ],
      [
        "____",
        "____"
      ],
      [
        "m",
        "y"
      ],
      [
        "ri",
        "x"
      ],
      [
        "Ġem",
        "p"
      ],
      [
        "Ġopt",
        "ions"
      ],
      [
        "Ġstruct",
        "ure"
      ],
      [
        "Ġst",
        "ay"
      ],
      [
        "ĠH",
        "is"
      ],
      [
        "Ġwebs",
        "ite"
      ],
      [
        "ĠA",
        "ct"
      ],
      [
        "Ġcan",
        "not"
      ],
      [
        "Ġt",
        "aken"
      ],
      [
        "al",
        "ign"
      ],
      [
        "an",
        "ks"
      ],
      [
        "us",
        "b"
      ],
      [
        "Ġeffect",
        "ive"
      ],
      [
        "Ġaut",
        "om"
      ],
      [
        "Ġre",
        "d"
      ],
      [
        "ĠS",
        "outh"
      ],
      [
        "Ġdistrib",
        "ution"
      ],
      [
        "Ġpolit",
        "ical"
      ],
      [
        "Ġv",
        "ia"
      ],
      [
        "Ġbl",
        "ack"
      ],
      [
        "Ġd",
        "iv"
      ],
      [
        "ĠG",
        "erm"
      ],
      [
        "Ġme",
        "chan"
      ],
      [
        "Ġev",
        "idence"
      ],
      [
        "e",
        "qu"
      ],
      [
        "ce",
        "ll"
      ],
      [
        "$",
        ","
      ],
      [
        "Ġrec",
        "omm"
      ],
      [
        "m",
        "ore"
      ],
      [
        "Ġl",
        "iving"
      ],
      [
        "ul",
        "es"
      ],
      [
        "Ġman",
        "ufact"
      ],
      [
        "ra",
        "d"
      ],
      [
        "Ġstud",
        "ies"
      ],
      [
        "Ġlead",
        "ing"
      ],
      [
        "g",
        "round"
      ],
      [
        "our",
        "se"
      ],
      [
        "Ġref",
        "lect"
      ],
      [
        "Ġc",
        "hem"
      ],
      [
        "al",
        "y"
      ],
      [
        "Ġn",
        "ature"
      ],
      [
        "Ġc",
        "ou"
      ],
      [
        "it",
        "ution"
      ],
      [
        "ren",
        "ch"
      ],
      [
        "Ġsoft",
        "ware"
      ],
      [
        "re",
        "me"
      ],
      [
        "Ġb",
        "ir"
      ],
      [
        "ar",
        "ily"
      ],
      [
        "ir",
        "t"
      ],
      [
        "Ġg",
        "as"
      ],
      [
        "ĠM",
        "in"
      ],
      [
        "os",
        "ition"
      ],
      [
        "4",
        "3"
      ],
      [
        "is",
        "ter"
      ],
      [
        "Ġact",
        "ually"
      ],
      [
        "Ġfact",
        "ors"
      ],
      [
        "gor",
        "ith"
      ],
      [
        "b",
        "ook"
      ],
      [
        "y",
        "ond"
      ],
      [
        "2",
        "9"
      ],
      [
        "l",
        "ight"
      ],
      [
        "Ġa",
        "im"
      ],
      [
        "Ġchalleng",
        "es"
      ],
      [
        "O",
        "N"
      ],
      [
        "hem",
        "at"
      ],
      [
        "Ġm",
        "ess"
      ],
      [
        "id",
        "ed"
      ],
      [
        "Ġad",
        "apt"
      ],
      [
        "Ġdec",
        "ision"
      ],
      [
        "p",
        "ly"
      ],
      [
        "am",
        "ed"
      ],
      [
        "er",
        "ation"
      ],
      [
        "iv",
        "il"
      ],
      [
        "Ġest",
        "im"
      ],
      [
        "Ġstre",
        "ng"
      ],
      [
        "Ġide",
        "a"
      ],
      [
        "ĠA",
        "pr"
      ],
      [
        "am",
        "a"
      ],
      [
        "ĠG",
        "ree"
      ],
      [
        "Ġac",
        "cept"
      ],
      [
        "ict",
        "ion"
      ],
      [
        "Ġc",
        "ause"
      ],
      [
        "Ġd",
        "am"
      ],
      [
        "Ġd",
        "est"
      ],
      [
        "un",
        "ch"
      ],
      [
        "Ġint",
        "rodu"
      ],
      [
        "Ġdef",
        "in"
      ],
      [
        "Ġmed",
        "ical"
      ],
      [
        "Ġhy",
        "d"
      ],
      [
        "a",
        "ff"
      ],
      [
        "Ġt",
        "alk"
      ],
      [
        "ut",
        "ed"
      ],
      [
        "Ġbra",
        "nd"
      ],
      [
        "ourn",
        "al"
      ],
      [
        "W",
        "hen"
      ],
      [
        "ĠM",
        "y"
      ],
      [
        "ĠG",
        "o"
      ],
      [
        "I",
        "S"
      ],
      [
        "Ġp",
        "ath"
      ],
      [
        "Ġg",
        "round"
      ],
      [
        "Ġre",
        "v"
      ],
      [
        "ĠR",
        "ec"
      ],
      [
        "Ġfun",
        "ctions"
      ],
      [
        "Ġpat",
        "tern"
      ],
      [
        "Ġpart",
        "s"
      ],
      [
        "Ġsaf",
        "ety"
      ],
      [
        "cc",
        "ording"
      ],
      [
        "Ġits",
        "elf"
      ],
      [
        "Ġanal",
        "y"
      ],
      [
        "ĠCan",
        "ad"
      ],
      [
        "le",
        "ge"
      ],
      [
        "Ġen",
        "joy"
      ],
      [
        "Ġbu",
        "y"
      ],
      [
        "h",
        "ood"
      ],
      [
        "Ġs",
        "ent"
      ],
      [
        "Ġbl",
        "ood"
      ],
      [
        "O",
        "R"
      ],
      [
        "es",
        "tern"
      ],
      [
        "Ġcustom",
        "er"
      ],
      [
        "Wh",
        "at"
      ],
      [
        "Ġcal",
        "cul"
      ],
      [
        "Ġdesign",
        "ed"
      ],
      [
        "Ġstart",
        "ed"
      ],
      [
        "ra",
        "nd"
      ],
      [
        "Ġwor",
        "d"
      ],
      [
        "ĠP",
        "art"
      ],
      [
        "Ġcol",
        "or"
      ],
      [
        "ĠBrit",
        "ish"
      ],
      [
        "h",
        "old"
      ],
      [
        "it",
        "ute"
      ],
      [
        "Ġhe",
        "av"
      ],
      [
        "Ġmonth",
        "s"
      ],
      [
        "Ġre",
        "pl"
      ],
      [
        "Ġsp",
        "ect"
      ],
      [
        "yn",
        "am"
      ],
      [
        "Ġbro",
        "ad"
      ],
      [
        "k",
        "now"
      ],
      [
        "Ġth",
        "ird"
      ],
      [
        "Ġinclud",
        "es"
      ],
      [
        "res",
        "p"
      ],
      [
        "em",
        "s"
      ],
      [
        "3",
        "5"
      ],
      [
        "am",
        "ent"
      ],
      [
        "ĠP",
        "re"
      ],
      [
        "Ġinvol",
        "ved"
      ],
      [
        "ä",
        "¸"
      ],
      [
        "if",
        "old"
      ],
      [
        "ĠAmeric",
        "a"
      ],
      [
        "Ġinst",
        "ead"
      ],
      [
        "Ġmean",
        "ing"
      ],
      [
        "Ġapplic",
        "ation"
      ],
      [
        "b",
        "l"
      ],
      [
        "s",
        "u"
      ],
      [
        "Ġcon",
        "duct"
      ],
      [
        "ms",
        "elves"
      ],
      [
        "Ġfl",
        "ow"
      ],
      [
        "ĠEng",
        "lish"
      ],
      [
        "Ġcompan",
        "ies"
      ],
      [
        "'",
        "m"
      ],
      [
        "l",
        "i"
      ],
      [
        "al",
        "es"
      ],
      [
        "Ġ5",
        "0"
      ],
      [
        "Ġeffect",
        "s"
      ],
      [
        "Ġpur",
        "p"
      ],
      [
        "ĠO",
        "ct"
      ],
      [
        "Ġnecess",
        "ary"
      ],
      [
        "Ġde",
        "al"
      ],
      [
        "math",
        "b"
      ],
      [
        "I",
        "V"
      ],
      [
        "Ġw",
        "on"
      ],
      [
        "Ġob",
        "tain"
      ],
      [
        "Ġa",
        "ction"
      ],
      [
        "Ġthe",
        "mselves"
      ],
      [
        "Ġh",
        "ost"
      ],
      [
        "Ġsy",
        "m"
      ],
      [
        "it",
        "or"
      ],
      [
        "Ġf",
        "ram"
      ],
      [
        "Ġm",
        "oney"
      ],
      [
        "ĠP",
        "res"
      ],
      [
        "Ġde",
        "b"
      ],
      [
        "Ġrel",
        "ative"
      ],
      [
        "Ġmarket",
        "ing"
      ],
      [
        "Ġfl",
        "u"
      ],
      [
        "Ġbenef",
        "its"
      ],
      [
        "k",
        "ing"
      ],
      [
        "Ġsol",
        "utions"
      ],
      [
        "Ġlangu",
        "ages"
      ],
      [
        "2",
        "4"
      ],
      [
        "Ġs",
        "ense"
      ],
      [
        "an",
        "es"
      ],
      [
        "Ġprom",
        "ot"
      ],
      [
        "ript",
        "ion"
      ],
      [
        "re",
        "w"
      ],
      [
        "Ġto",
        "ols"
      ],
[...]
